{"version":"1.0","truncation":null,"padding":null,"added_tokens":[{"id":0,"content":"<|unk|>","single_word":false,"lstrip":false,"rstrip":false,"normalized":false,"special":true},{"id":1,"content":"<|pad|>","single_word":false,"lstrip":false,"rstrip":false,"normalized":false,"special":true},{"id":2,"content":"<|bos|>","single_word":false,"lstrip":false,"rstrip":false,"normalized":false,"special":true},{"id":3,"content":"<|eos|>","single_word":false,"lstrip":false,"rstrip":false,"normalized":false,"special":true},{"id":4,"content":"<|mask|>","single_word":false,"lstrip":false,"rstrip":false,"normalized":false,"special":true},{"id":5,"content":"<|im_start|>","single_word":false,"lstrip":false,"rstrip":false,"normalized":false,"special":true},{"id":6,"content":"<|im_end|>","single_word":false,"lstrip":false,"rstrip":false,"normalized":false,"special":true},{"id":7,"content":"<|system|>","single_word":false,"lstrip":false,"rstrip":false,"normalized":false,"special":true},{"id":8,"content":"<|user|>","single_word":false,"lstrip":false,"rstrip":false,"normalized":false,"special":true},{"id":9,"content":"<|assistant|>","single_word":false,"lstrip":false,"rstrip":false,"normalized":false,"special":true},{"id":10,"content":"<think>","single_word":false,"lstrip":false,"rstrip":false,"normalized":false,"special":true},{"id":11,"content":"</think>","single_word":false,"lstrip":false,"rstrip":false,"normalized":false,"special":true},{"id":12,"content":"<|begin_of_thought|>","single_word":false,"lstrip":false,"rstrip":false,"normalized":false,"special":true},{"id":13,"content":"<|end_of_thought|>","single_word":false,"lstrip":false,"rstrip":false,"normalized":false,"special":true},{"id":14,"content":"<answer>","single_word":false,"lstrip":false,"rstrip":false,"normalized":false,"special":true},{"id":15,"content":"</answer>","single_word":false,"lstrip":false,"rstrip":false,"normalized":false,"special":true},{"id":16,"content":"<|step|>","single_word":false,"lstrip":false,"rstrip":false,"normalized":false,"special":true},{"id":17,"content":"<|/step|>","single_word":false,"lstrip":false,"rstrip":false,"normalized":false,"special":true},{"id":18,"content":"<context>","single_word":false,"lstrip":false,"rstrip":false,"normalized":false,"special":true},{"id":19,"content":"</context>","single_word":false,"lstrip":false,"rstrip":false,"normalized":false,"special":true},{"id":20,"content":"<|doc_start|>","single_word":false,"lstrip":false,"rstrip":false,"normalized":false,"special":true},{"id":21,"content":"<|doc_end|>","single_word":false,"lstrip":false,"rstrip":false,"normalized":false,"special":true},{"id":22,"content":"<|search|>","single_word":false,"lstrip":false,"rstrip":false,"normalized":false,"special":true},{"id":23,"content":"<|search_results|>","single_word":false,"lstrip":false,"rstrip":false,"normalized":false,"special":true},{"id":24,"content":"<|tool_list_start|>","single_word":false,"lstrip":false,"rstrip":false,"normalized":false,"special":true},{"id":25,"content":"<|tool_list_end|>","single_word":false,"lstrip":false,"rstrip":false,"normalized":false,"special":true},{"id":26,"content":"<tools>","single_word":false,"lstrip":false,"rstrip":false,"normalized":false,"special":true},{"id":27,"content":"</tools>","single_word":false,"lstrip":false,"rstrip":false,"normalized":false,"special":true},{"id":28,"content":"<|tool_call_start|>","single_word":false,"lstrip":false,"rstrip":false,"normalized":false,"special":true},{"id":29,"content":"<|tool_call_end|>","single_word":false,"lstrip":false,"rstrip":false,"normalized":false,"special":true},{"id":30,"content":"<|tool_call|>","single_word":false,"lstrip":false,"rstrip":false,"normalized":false,"special":true},{"id":31,"content":"<|/tool_call|>","single_word":false,"lstrip":false,"rstrip":false,"normalized":false,"special":true},{"id":32,"content":"<|tool_response_start|>","single_word":false,"lstrip":false,"rstrip":false,"normalized":false,"special":true},{"id":33,"content":"<|tool_response_end|>","single_word":false,"lstrip":false,"rstrip":false,"normalized":false,"special":true},{"id":34,"content":"<|tool_response|>","single_word":false,"lstrip":false,"rstrip":false,"normalized":false,"special":true},{"id":35,"content":"<|/tool_response|>","single_word":false,"lstrip":false,"rstrip":false,"normalized":false,"special":true},{"id":36,"content":"<|image|>","single_word":false,"lstrip":false,"rstrip":false,"normalized":false,"special":true},{"id":37,"content":"<|image_pad|>","single_word":false,"lstrip":false,"rstrip":false,"normalized":false,"special":true},{"id":38,"content":"<|image_placeholder|>","single_word":false,"lstrip":false,"rstrip":false,"normalized":false,"special":true},{"id":39,"content":"<|audio|>","single_word":false,"lstrip":false,"rstrip":false,"normalized":false,"special":true},{"id":40,"content":"<|audio_pad|>","single_word":false,"lstrip":false,"rstrip":false,"normalized":false,"special":true},{"id":41,"content":"<|audio_placeholder|>","single_word":false,"lstrip":false,"rstrip":false,"normalized":false,"special":true},{"id":42,"content":"<|video|>","single_word":false,"lstrip":false,"rstrip":false,"normalized":false,"special":true},{"id":43,"content":"<|video_pad|>","single_word":false,"lstrip":false,"rstrip":false,"normalized":false,"special":true},{"id":44,"content":"<|fim_prefix|>","single_word":false,"lstrip":false,"rstrip":false,"normalized":false,"special":true},{"id":45,"content":"<|fim_suffix|>","single_word":false,"lstrip":false,"rstrip":false,"normalized":false,"special":true},{"id":46,"content":"<|fim_middle|>","single_word":false,"lstrip":false,"rstrip":false,"normalized":false,"special":true},{"id":47,"content":"<|repo_name|>","single_word":false,"lstrip":false,"rstrip":false,"normalized":false,"special":true},{"id":48,"content":"<|file_separator|>","single_word":false,"lstrip":false,"rstrip":false,"normalized":false,"special":true},{"id":49,"content":"<|reward|>","single_word":false,"lstrip":false,"rstrip":false,"normalized":false,"special":true},{"id":50,"content":"<|reserved_0|>","single_word":false,"lstrip":false,"rstrip":false,"normalized":false,"special":true},{"id":51,"content":"<|reserved_1|>","single_word":false,"lstrip":false,"rstrip":false,"normalized":false,"special":true},{"id":52,"content":"<|reserved_2|>","single_word":false,"lstrip":false,"rstrip":false,"normalized":false,"special":true},{"id":53,"content":"<|reserved_3|>","single_word":false,"lstrip":false,"rstrip":false,"normalized":false,"special":true},{"id":54,"content":"<|reserved_4|>","single_word":false,"lstrip":false,"rstrip":false,"normalized":false,"special":true},{"id":55,"content":"<|reserved_5|>","single_word":false,"lstrip":false,"rstrip":false,"normalized":false,"special":true},{"id":56,"content":"<|reserved_6|>","single_word":false,"lstrip":false,"rstrip":false,"normalized":false,"special":true},{"id":57,"content":"<|reserved_7|>","single_word":false,"lstrip":false,"rstrip":false,"normalized":false,"special":true},{"id":58,"content":"<|reserved_8|>","single_word":false,"lstrip":false,"rstrip":false,"normalized":false,"special":true},{"id":59,"content":"<|reserved_9|>","single_word":false,"lstrip":false,"rstrip":false,"normalized":false,"special":true},{"id":60,"content":"<|reserved_10|>","single_word":false,"lstrip":false,"rstrip":false,"normalized":false,"special":true},{"id":61,"content":"<|reserved_11|>","single_word":false,"lstrip":false,"rstrip":false,"normalized":false,"special":true},{"id":62,"content":"<|reserved_12|>","single_word":false,"lstrip":false,"rstrip":false,"normalized":false,"special":true},{"id":63,"content":"<|reserved_13|>","single_word":false,"lstrip":false,"rstrip":false,"normalized":false,"special":true},{"id":64,"content":"<|reserved_14|>","single_word":false,"lstrip":false,"rstrip":false,"normalized":false,"special":true},{"id":65,"content":"<|reserved_15|>","single_word":false,"lstrip":false,"rstrip":false,"normalized":false,"special":true},{"id":66,"content":"<|reserved_16|>","single_word":false,"lstrip":false,"rstrip":false,"normalized":false,"special":true},{"id":67,"content":"<|reserved_17|>","single_word":false,"lstrip":false,"rstrip":false,"normalized":false,"special":true},{"id":68,"content":"<|reserved_18|>","single_word":false,"lstrip":false,"rstrip":false,"normalized":false,"special":true},{"id":69,"content":"<|reserved_19|>","single_word":false,"lstrip":false,"rstrip":false,"normalized":false,"special":true}],"normalizer":null,"pre_tokenizer":{"type":"Sequence","pretokenizers":[{"type":"Split","pattern":{"Regex":"(?i:'s|'t|'re|'ve|'m|'ll|'d)|[^\\r\\n\\p{L}\\p{N}]?[\\p{L}\\p{M}]+|\\p{N}| ?[^\\s\\p{L}\\p{M}\\p{N}]+[\\r\\n]*|\\s*[\\r\\n]+|\\s+(?!\\S)|\\s+"},"behavior":"Isolated","invert":false},{"type":"ByteLevel","add_prefix_space":false,"trim_offsets":true,"use_regex":false}]},"post_processor":{"type":"ByteLevel","add_prefix_space":true,"trim_offsets":false,"use_regex":true},"decoder":{"type":"ByteLevel","add_prefix_space":true,"trim_offsets":true,"use_regex":true},"model":{"type":"BPE","dropout":null,"unk_token":"<|unk|>","continuing_subword_prefix":null,"end_of_word_suffix":null,"fuse_unk":false,"byte_fallback":false,"ignore_merges":false,"vocab":{"<|unk|>":0,"<|pad|>":1,"<|bos|>":2,"<|eos|>":3,"<|mask|>":4,"<|im_start|>":5,"<|im_end|>":6,"<|system|>":7,"<|user|>":8,"<|assistant|>":9,"<think>":10,"</think>":11,"<|begin_of_thought|>":12,"<|end_of_thought|>":13,"<answer>":14,"</answer>":15,"<|step|>":16,"<|/step|>":17,"<context>":18,"</context>":19,"<|doc_start|>":20,"<|doc_end|>":21,"<|search|>":22,"<|search_results|>":23,"<|tool_list_start|>":24,"<|tool_list_end|>":25,"<tools>":26,"</tools>":27,"<|tool_call_start|>":28,"<|tool_call_end|>":29,"<|tool_call|>":30,"<|/tool_call|>":31,"<|tool_response_start|>":32,"<|tool_response_end|>":33,"<|tool_response|>":34,"<|/tool_response|>":35,"<|image|>":36,"<|image_pad|>":37,"<|image_placeholder|>":38,"<|audio|>":39,"<|audio_pad|>":40,"<|audio_placeholder|>":41,"<|video|>":42,"<|video_pad|>":43,"<|fim_prefix|>":44,"<|fim_suffix|>":45,"<|fim_middle|>":46,"<|repo_name|>":47,"<|file_separator|>":48,"<|reward|>":49,"<|reserved_0|>":50,"<|reserved_1|>":51,"<|reserved_2|>":52,"<|reserved_3|>":53,"<|reserved_4|>":54,"<|reserved_5|>":55,"<|reserved_6|>":56,"<|reserved_7|>":57,"<|reserved_8|>":58,"<|reserved_9|>":59,"<|reserved_10|>":60,"<|reserved_11|>":61,"<|reserved_12|>":62,"<|reserved_13|>":63,"<|reserved_14|>":64,"<|reserved_15|>":65,"<|reserved_16|>":66,"<|reserved_17|>":67,"<|reserved_18|>":68,"<|reserved_19|>":69,"!":70,"\"":71,"#":72,"$":73,"%":74,"&":75,"'":76,"(":77,")":78,"*":79,"+":80,",":81,"-":82,".":83,"/":84,"0":85,"1":86,"2":87,"3":88,"4":89,"5":90,"6":91,"7":92,"8":93,"9":94,":":95,";":96,"<":97,"=":98,">":99,"?":100,"@":101,"A":102,"B":103,"C":104,"D":105,"E":106,"F":107,"G":108,"H":109,"I":110,"J":111,"K":112,"L":113,"M":114,"N":115,"O":116,"P":117,"Q":118,"R":119,"S":120,"T":121,"U":122,"V":123,"W":124,"X":125,"Y":126,"Z":127,"[":128,"\\":129,"]":130,"^":131,"_":132,"`":133,"a":134,"b":135,"c":136,"d":137,"e":138,"f":139,"g":140,"h":141,"i":142,"j":143,"k":144,"l":145,"m":146,"n":147,"o":148,"p":149,"q":150,"r":151,"s":152,"t":153,"u":154,"v":155,"w":156,"x":157,"y":158,"z":159,"{":160,"|":161,"}":162,"~":163,"¡":164,"¢":165,"£":166,"¤":167,"¥":168,"¦":169,"§":170,"¨":171,"©":172,"ª":173,"«":174,"¬":175,"®":176,"¯":177,"°":178,"±":179,"²":180,"³":181,"´":182,"µ":183,"¶":184,"·":185,"¸":186,"¹":187,"º":188,"»":189,"¼":190,"½":191,"¾":192,"¿":193,"À":194,"Á":195,"Â":196,"Ã":197,"Ä":198,"Å":199,"Æ":200,"Ç":201,"È":202,"É":203,"Ê":204,"Ë":205,"Ì":206,"Í":207,"Î":208,"Ï":209,"Ð":210,"Ñ":211,"Ò":212,"Ó":213,"Ô":214,"Õ":215,"Ö":216,"×":217,"Ø":218,"Ù":219,"Ú":220,"Û":221,"Ü":222,"Ý":223,"Þ":224,"ß":225,"à":226,"á":227,"â":228,"ã":229,"ä":230,"å":231,"æ":232,"ç":233,"è":234,"é":235,"ê":236,"ë":237,"ì":238,"í":239,"î":240,"ï":241,"ð":242,"ñ":243,"ò":244,"ó":245,"ô":246,"õ":247,"ö":248,"÷":249,"ø":250,"ù":251,"ú":252,"û":253,"ü":254,"ý":255,"þ":256,"ÿ":257,"Ā":258,"ā":259,"Ă":260,"ă":261,"Ą":262,"ą":263,"Ć":264,"ć":265,"Ĉ":266,"ĉ":267,"Ċ":268,"ċ":269,"Č":270,"č":271,"Ď":272,"ď":273,"Đ":274,"đ":275,"Ē":276,"ē":277,"Ĕ":278,"ĕ":279,"Ė":280,"ė":281,"Ę":282,"ę":283,"Ě":284,"ě":285,"Ĝ":286,"ĝ":287,"Ğ":288,"ğ":289,"Ġ":290,"ġ":291,"Ģ":292,"ģ":293,"Ĥ":294,"ĥ":295,"Ħ":296,"ħ":297,"Ĩ":298,"ĩ":299,"Ī":300,"ī":301,"Ĭ":302,"ĭ":303,"Į":304,"į":305,"İ":306,"ı":307,"Ĳ":308,"ĳ":309,"Ĵ":310,"ĵ":311,"Ķ":312,"ķ":313,"ĸ":314,"Ĺ":315,"ĺ":316,"Ļ":317,"ļ":318,"Ľ":319,"ľ":320,"Ŀ":321,"ŀ":322,"Ł":323,"ł":324,"Ń":325,"Ġt":326,"Ġa":327,"he":328,"in":329,"re":330,"Ġthe":331,"on":332,"er":333,"Ġs":334,"at":335,"Ġo":336,"en":337,"Ġw":338,"Ġc":339,"is":340,"es":341,"it":342,"nd":343,"or":344,"Ġp":345,"Ġb":346,"al":347,"Ġf":348,"an":349,"ed":350,"ing":351,"Ġof":352,"ou":353,"Ġm":354,"Ġin":355,"ar":356,"Ġto":357,"Ġd":358,"Ġand":359,"ic":360,"ion":361,"le":362,"Ġth":363,"as":364,"ro":365,"ĠĠ":366,"Ġh":367,"ent":368,"Ġe":369,"ct":370,"Ġn":371,"il":372,"Ġl":373,"om":374,"ve":375,"Ġre":376,"st":377,".Ċ":378,"Ġis":379,"ly":380,"Ġbe":381,"Ġg":382,"se":383,"ĠT":384,"âĢ":385,"ut":386,"ot":387,"et":388,"im":389,"ol":390,"id":391,"ow":392,"ra":393,"ĠI":394,"ce":395,"ation":396,"Ġy":397,"Ġthat":398,"ig":399,"Ġfor":400,"Ġu":401,"Ġon":402,"ĠA":403,"ch":404,"ĠS":405,"ur":406,"ver":407,"Ġst":408,"ay":409,"am":410,"ĠC":411,"ir":412,"ul":413,"Ġyou":414,"el":415,"ad":416,"ith":417,"Ġit":418,"ĠĠĠĠ":419,"ĊĊ":420,"Ġas":421,"Ġan":422,"her":423,"if":424,"Ġwh":425,"Ġare":426,"Ġ(":427,"Ġwith":428,"Ġpro":429,"Ġcon":430,"Ġal":431,"ter":432,"ĠM":433,"od":434,"Ġor":435,"um":436,"ge":437,"ĠThe":438,"ĠP":439,"Ġhe":440,"ate":441,"ers":442,"Ġha":443,"ill":444,"Ġwe":445,"th":446,"qu":447,"ist":448,"ĠB":449,"op":450,"Ġde":451,"ke":452,"Ġex":453,"ld":454,"ri":455,"ore":456,"ess":457,"est":458,"ab":459,"ment":460,"Ġcom":461,"us":462,"Ġv":463,"ĠW":464,"ac":465,"ĠH":466,"ect":467,"res":468,"Ġat":469,"igh":470,"os":471,"ity":472,"Ġsu":473,"rom":474,"Ġby":475,"pp":476,"ive":477,"em":478,"nt":479,"ant":480,"Ġwas":481,"ĠD":482,"ain":483,"âĢĻ":484,"ies":485,"Ġcan":486,"Ġr":487,"ĠF":488,"ĠR":489,"Ġne":490,"Ġse":491,"Ġnot":492,"ĠE":493,"iv":494,"and":495,".ĊĊ":496,"Ġfrom":497,"Ġch":498,"oc":499,"Ġhave":500,"un":501,"Ġthis":502,"ort":503,"ud":504,"ĠN":505,"art":506,"ight":507,"Ġsh":508,"Ġle":509,"ould":510,"ure":511,"ĠL":512,"ĠG":513,"ĠâĢ":514,"Âł":515,"ally":516,"all":517,"Ġab":518,"end":519,"'s":520,"Ġsp":521,"og":522,"ust":523,"ome":524,"ere":525,"pt":526,"out":527,"Ġwor":528,"ost":529,"gh":530,"pl":531,"ions":532,"Ġk":533,"ich":534,"ine":535,"our":536,"rou":537,"The":538,"ial":539,"ard":540,"Ġus":541,"ag":542,"Ġpl":543,"ther":544,"Ġint":545,"ĠO":546,"per":547,"Ġwhe":548,"Ġdo":549,"ell":550,"are":551,"act":552,"Ġthey":553,"Ġall":554,"age":555,"ak":556,"ated":557,"Ġ=":558,"ast":559,"ide":560,"ff":561,"Ġim":562,"ical":563,"Ġyour":564,"Ġwill":565,"ĠJ":566,"ear":567,"Ġtheir":568,"ans":569,"Ġen":570,"Ġbut":571,"âĢĻs":572,"ie":573,"iz":574,"Ġwhich":575,"ous":576,"ind":577,"Ġme":578,"ap":579,"ult":580,"Ġ\"":581,"ĠĠĠ":582,"ec":583,"Ġhas":584,"du":585,"ĠU":586,"Ġj":587,"Ġgo":588,"Ġcomp":589,"Ġad":590,"Ġmore":591,"ong":592,"ip":593,"ber":594,"Ġcont":595,"ok":596,"ru":597,"ĠIn":598,"ĠĠĠĠĠĠĠĠ":599,"ĠTh":600,"Ġone":601,"Ġres":602,"ations":603,"ry":604,"orm":605,"cc":606,"one":607,"ame":608,"ble":609,"ire":610,"Ġso":611,"Ġdis":612,"able":613,"Ġinc":614,"vel":615,"Ġout":616,"ep":617,"ack":618,"Ġcl":619,"so":620,"ake":621,"ary":622,"Ġother":623,"Ġman":624,"ime":625,"ence":626,"Ġ-":627,"ach":628,"ia":629,"ass":630,"au":631,"ose":632,"ction":633,"ance":634,"Ġper":635,"ice":636,"very":637,"Ġhis":638,"Ġli":639,"âĢĿ":640,"ents":641,"Ġabout":642,"Ġwere":643,"ase":644,"ater":645,"ign":646,"Ġun":647,"Ġup":648,"ue":649,"ress":650,"Ġqu":651,"int":652,"ild":653,"..":654,"ace":655,"Ġar":656,"ite":657,"Ġwho":658,"Ġif":659,"Ġte":660,"av":661,"Ġapp":662,"ks":663,"Ġalso":664,"Ġev":665,"now":666,"ang":667,"ition":668,"ook":669,"Ġimp":670,"ĠSt":671,"Ġpre":672,"Ġthem":673,"Ġthere":674,"ub":675,"reat":676,"Ġpart":677,"Ġsome":678,"ount":679,"ord":680,"ens":681,"ree":682,"Ġpe":683,"low":684,"ays":685,"ew":686,"ood":687,"ĠâĢľ":688,"ĠK":689,"Ġthan":690,"Ġsc":691,"Ġbec":692,"ile":693,"ĠIt":694,"ound":695,"ory":696,"ors":697,"Ġwhen":698,"Ġwould":699,"iff":700,"##":701,"Ġlike":702,"ces":703,"ish":704,"ough":705,"ll":706,"Ġtime":707,"ople":708,"ric":709,"Ġsy":710,"form":711,"Ġag":712,"Ġhow":713,"ail":714,"Ġinto":715,"ond":716,"Ġhad":717,"Ġwhat":718,"Ġany":719,"Ġstud":720,"Ġcomm":721,"Ġro":722,"ph":723,"ings":724,"Ġknow":725,"Ġbeen":726,"ĠCh":727,"Ġtw":728,"Ġyear":729,"ĠY":730,"ause":731,"Ġover":732,"ĠV":733,"nder":734,"te":735,"Ġwork":736,"Ġ$":737,"'t":738,"ath":739,"ple":740,"Ġsa":741,"Ġdiff":742,"ove":743,"Ġmay":744,"Ġpeople":745,"Ġits":746,"Ġrec":747,"ates":748,"Ġra":749,"Ġbet":750,"Ġpo":751,"ms":752,"irst":753,"Ġuse":754,"Ġnum":755,"rit":756,"les":757,"Ġtra":758,"Ġno":759,"ĠThis":760,"ons":761,"Ġget":762,"mer":763,"ian":764,"ink":765,"we":766,"vers":767,"Ġthese":768,"olog":769,"Ġneed":770,"Ġind":771,"ual":772,"Ġact":773,"ÂłÂł":774,"rough":775,"ject":776,"Ġour":777,"ys":778,"ific":779,"Ġonly":780,"Ġcol":781,"ious":782,"Ġtwo":783,"Ġbl":784,"lic":785,"erv":786,"Ġcons":787,"row":788,"Ġnew":789,"Ġunder":790,":Ċ":791,"red":792,"Ġ\\":793,")Ċ":794,"ren":795,"tern":796,").":797,"Ġmost":798,"ning":799,"ft":800,"Ġoff":801,"ck":802,"ov":803,"lect":804,"Ġdes":805,"Ġam":806,"Ġmy":807,"Ġrep":808,"),":809,"ob":810,"xt":811,"Ġrel":812,"Ġacc":813,"Ġtr":814,"lud":815,"yp":816,"Ġjust":817,"Ġfirst":818,"eth":819,"ative":820,"Ġher":821,"ib":822,"stem":823,"sel":824,"hed":825,"Ġsuch":826,"Ġexp":827,"ities":828,"own":829,"fter":830,"ating":831,"Ġfe":832,"Ġgen":833,"ular":834,"ics":835,"Ġdiffere":836,"ient":837,"Ġhel":838,"ise":839,"Ġmany":840,"ments":841,"hat":842,"Ġthen":843,"ne":844,"ark":845,"Ġpos":846,"round":847,"Ġused":848,"rib":849,"Ġco":850,"Ġob":851,"cess":852,"Ġhelp":853,"ced":854,"Ġph":855,"erm":856,"old":857,"oth":858,"ef":859,"Ġshould":860,"Ġcould":861,"Ġthrough":862,"ffect":863,"ick":864,"ange":865,"urn":866,"Ġprodu":867,"ution":868,"als":869,"Ġpr":870,"ĠHe":871,"Ġadd":872,"alth":873,"hen":874,"Ġ+":875,"Ġdec":876,"ful":877,"ational":878,"ĠâĢĵ":879,"velop":880,"ible":881,"Ġinclud":882,"ility":883,"Ġwhere":884,"Ġem":885,"ied":886,"ert":887,"iss":888,"ĠĠĠĠĠĠĠ":889,"Ġchild":890,"Ġass":891,"Ġmake":892,"Ġprov":893,"ram":894,"ract":895,"uch":896,"Ġatt":897,"Ġreg":898,"__":899,"Ġsub":900,"Ġspec":901,"Ġac":902,"ween":903,"aw":904,"Ġsystem":905,"ower":906,"In":907,"Ġbecause":908,"its":909,"ĠUn":910,"fore":911,"Ġrem":912,"Ġfl":913,"Ġsm":914,"Ġform":915,"Ġbetween":916,"Ġwell":917,"Ġshe":918,"ting":919,"Ġway":920,"Ġsee":921,"uring":922,"ased":923,"ade":924,"rop":925,"hes":926,"eg":927,"ife":928,"wn":929,"Ġyears":930,"ool":931,"Ġinv":932,"ng":933,"ata":934,"Ġbu":935,"cy":936,"ten":937,"ict":938,"Ġsim":939,"Ġeven":940,"Ġsur":941,"Ġsaid":942,"Ġsupp":943,"ures":944,"Ġnumber":945,"ont":946,"Ġdevelop":947,"Ġequ":948,"Ġexam":949,"Ġdoes":950,"Ġevery":951,"get":952,"iet":953,"Ġvery":954,"Ġval":955,"ered":956,"Ġinter":957,"Ġinf":958,"ss":959,"Ġx":960,"ually":961,"cept":962,"Ġmod":963,"--":964,"arch":965,"iew":966,"ily":967,"Ġeach":968,"ts":969,"Ġdifferent":970,"ident":971,"other":972,"ollow":973,"Ġafter":974,"Ġpers":975,"Ġset":976,"ĠIf":977,"Ġinst":978,"ever":979,"oy":980,"Ġlong":981,"Ġpoint":982,"Ġpres":983,"Ġright":984,"Ġfind":985,"Ġtrans":986,"Ġsame":987,"Ġpol":988,"Ġdef":989,"Ġgra":990,"Ġmuch":991,"Ġsec":992,"Ġke":993,"Ġhigh":994,"Ġhim":995,"Ġback":996,"Ġcall":997,"Ġfact":998,"ĠWe":999,"ines":1000,"aking":1001,"Th":1002,"Ġvar":1003,"imes":1004,"ues":1005,"?Ċ":1006,"Ġdisc":1007,"Ġlook":1008,"Ġ'":1009,"Ġwater":1010,"Ġproble":1011,"ited":1012,"Ġthose":1013,"Ġsol":1014,"Ġcar":1015,"gan":1016,"self":1017,"Ġbeing":1018,"ants":1019,"ins":1020,"Ġear":1021,"Ġfun":1022,"Ġdist":1023,"âĢĻt":1024,"ience":1025,"meric":1026,"uc":1027,"ock":1028,"tle":1029,"ax":1030,"chool":1031,"Ġdet":1032,"Ġcount":1033,".\"":1034,"Ġgood":1035,"Ġdid":1036,"Ġimport":1037,"Ġfollow":1038,"Ġend":1039,"ists":1040,"the":1041,"Ġthink":1042,"Ġresp":1043,"Ġgener":1044,"Ġfound":1045,"Ġworld":1046,"Ġlar":1047,"Ġtyp":1048,"Ġresult":1049,"Ġref":1050,"ize":1051,"chn":1052,"Ġnow":1053,"gy":1054,"Ġsign":1055,"ism":1056,"Ġexper":1057,"ness":1058,"led":1059,"Ġhealth":1060,"ature":1061,"Ġdon":1062,"Ġcent":1063,"formation":1064,"Ġed":1065,"Ġ[":1066,"ives":1067,"ps":1068,"ty":1069,"ural":1070,"ather":1071,"ology":1072,"ĠAl":1073,"ĠAn":1074,"ork":1075,"Ġent":1076,"Ġcur":1077,":ĊĊ":1078,"Ġdown":1079,"Ġlear":1080,"Ġown":1081,"Ġread":1082,"Ġmin":1083,"ward":1084,"Ġext":1085,"land":1086,"Ġcor":1087,"io":1088,"ince":1089,"Ġeffect":1090,"Ġusing":1091,"omm":1092,"ved":1093,"ĠHow":1094,"ĠPro":1095,"Ġmed":1096,"Ġagain":1097,"Ġrese":1098,"ĠAmeric":1099,"Ġshow":1100,"Ġwant":1101,"Ġincre":1102,"Ġrequ":1103,"ody":1104,"Ġquest":1105,"ix":1106,"ex":1107,"ving":1108,"Ġprog":1109,"ages":1110,"Ġboth":1111,"Ġmon":1112,"Ġret":1113,"?ĊĊ":1114,"read":1115,"Ġbefore":1116,"ds":1117,"ically":1118,"ĠFor":1119,"Ġdata":1120,"cent":1121,"Ġmade":1122,"ĠThey":1123,"nce":1124,"ruct":1125,"Ġche":1126,"ublic":1127,"vent":1128,"ĠYou":1129,"Ġstr":1130,"Ġmat":1131,"iel":1132,"bers":1133,"der":1134,"Ġhum":1135,"Ġcre":1136,"con":1137,"ivers":1138,"ases":1139,"Ġtake":1140,"gg":1141,"ute":1142,"Ġstart":1143,"ven":1144,"Ġlife":1145,"ĠAs":1146,"arm":1147,"ĠAnd":1148,"Ġdep":1149,"up":1150,"Ġprocess":1151,"Ġlit":1152,"Ġcomple":1153,"sw":1154,"Ġins":1155,"Ġpartic":1156,"Ġpat":1157,"ined":1158,"inal":1159,"ĠBut":1160,"li":1161,"Ġart":1162,"Ġperson":1163,"ave":1164,"vern":1165,"any":1166,"cer":1167,"Ġexpl":1168,"Ġfam":1169,"akes":1170,"stand":1171,"ized":1172,"und":1173,"ted":1174,"hip":1175,"Ġloc":1176,"Ġsom":1177,"Ġhand":1178,"air":1179,"ices":1180,"Ġsoc":1181,"Ġthough":1182,"Ġwhile":1183,"Ġchar":1184,"Ġstate":1185,"iven":1186,"Ġsmall":1187,"Ġless":1188,"Ġlevel":1189,"Ġtest":1190,"Ġimportant":1191,"Ġposs":1192,"Ġca":1193,"ale":1194,"Ġsk":1195,"Ġgu":1196,"Ġplay":1197,"ars":1198,"Ġinformation":1199,"Ġlead":1200,"Ġgrou":1201,"Ġchildren":1202,"Ġstudents":1203,"Ġaut":1204,"âĢ¢":1205,"Ġday":1206,"Ġtechn":1207,"ull":1208,"ection":1209,"elf":1210,"day":1211,"Ġduring":1212,"cl":1213,"Ġ&":1214,"Ġthree":1215,"Ġaround":1216,"eng":1217,"Ġreal":1218,"ivid":1219,"ner":1220,"Ġbr":1221,"Ġsay":1222,"ĠRe":1223,".âĢĿ":1224,"ves":1225,"Ġpower":1226,"Ġexample":1227,"Ġav":1228,"Ġcommun":1229,"Ġstill":1230,"ah":1231,"Ġdi":1232,"Ġdire":1233,"way":1234,"rent":1235,"Ġmust":1236,"iron":1237,"Ġbel":1238,"Ġschool":1239,"ĠĠĠĠĠĠĠĠĠĠĠĠĠĠĠĠ":1240,"ially":1241,"ides":1242,"rac":1243,"Ġclass":1244,"Ġser":1245,"Ġpop":1246,"com":1247,"This":1248,"ĠAr":1249,"Ġconf":1250,"Ġgl":1251,"ank":1252,"ee":1253,"irc":1254,"ash":1255,"ĠSp":1256,"Ġgrow":1257,"ĠThere":1258,"ĠNew":1259,"oh":1260,"Ġfood":1261,"Ġhere":1262,"Ġmem":1263,"Ġmain":1264,"ters":1265,"uss":1266,"alk":1267,"Ġop":1268,"}{":1269,"Ġgreat":1270,"Ġbo":1271,"Ġconst":1272,"Ġwrit":1273,"ĠWh":1274,"Ġ.":1275,"ral":1276,"Ġcle":1277,"Ġhist":1278,".,":1279,"rol":1280,"Ġstudy":1281,"ason":1282,"Ġplan":1283,"imate":1284,"Ġoften":1285,")ĊĊ":1286,"Ġcour":1287,"$$":1288,"ĠQ":1289,"erest":1290,"Ġserv":1291,"ulation":1292,"ision":1293,"Ġmight":1294,"oss":1295,"omen":1296,"Ġconsid":1297,"ouse":1298,"âĢĶ":1299,"Ġself":1300,"Ġunderstand":1301,"ared":1302,"-b":1303,"ished":1304,"ross":1305,"ron":1306,"-s":1307,"Ġocc":1308,"ger":1309,"...":1310,"Ġide":1311,"Ġeas":1312,"ĠSc":1313,"Ġsupport":1314,"Ġcalled":1315,"ator":1316,"Ġprot":1317,"ense":1318,"dition":1319,"Ġgovern":1320,"de":1321,"Ġcontin":1322,"Ġstand":1323,"ĠEx":1324,"ains":1325,"Ġfew":1326,"ien":1327,"Ġel":1328,"Ġtri":1329,"Ġcal":1330,"Ġmet":1331,"line":1332,"ĠWhat":1333,"ional":1334,"pr":1335,"Ġanother":1336,"Ġline":1337,"Ġi":1338,"to":1339,"itive":1340,"aj":1341,"Ġsl":1342,"ĠInd":1343,"Ġelect":1344,"ired":1345,",\"":1346,"Ġallow":1347,"els":1348,"Ġsecond":1349,"Ġtoo":1350,"Ġcare":1351,"ital":1352,"Ġplace":1353,"Ġcommon":1354,"ug":1355,"viron":1356,"ĠIs":1357,"Ġbody":1358,"Ġest":1359,"iversity":1360,"less":1361,"Ġdesign":1362,"br":1363,"Ġansw":1364,"It":1365,"Ġwithout":1366,"Ġpar":1367,"ode":1368,"ets":1369,"Ġmean":1370,"man":1371,"ality":1372,"ways":1373,"ÂłÂłÂłÂł":1374,"Ġlast":1375,"Ġlarge":1376,",Ċ":1377,"here":1378,"orn":1379,"ethod":1380,"ury":1381,"Ġappro":1382,"Ġpass":1383,"Ġgiven":1384,"Ġhapp":1385,"ote":1386,"Ġproblem":1387,"ertain":1388,"Ġbook":1389,"Ġchange":1390,"Ġtreat":1391,"ption":1392,"ability":1393,"ĠSh":1394,"osed":1395,"Ġcell":1396,"Ġbeh":1397,"Ġris":1398,"anc":1399,"ffic":1400,"Ġve":1401,"itions":1402,"Ġadv":1403,"ergy":1404,"Ġhuman":1405,"ething":1406,"Ġorgan":1407,"ield":1408,"acter":1409,"Ġactiv":1410,"eed":1411,"###":1412,"ering":1413,"Ġfunction":1414,"Ġinterest":1415,"inc":1416,"Ġgoing":1417,"iety":1418,"Ġredu":1419,"ier":1420,"Ġgre":1421,"Ġthings":1422,"ify":1423,"ected":1424,"tt":1425,"Ġresearch":1426,"ential":1427,"Ġproduct":1428,"ium":1429,"Ġbetter":1430,"Ġbuild":1431,"Ġbest":1432,"me":1433,"Ġreport":1434,"Ġmeas":1435,"ids":1436,"Ġarea":1437,"cul":1438,"ĠĠĠĠĠĠĠĠĠĠĠ":1439,"Ġlaw":1440,"oun":1441,"frac":1442,"ton":1443,"Ġreally":1444,"bs":1445,"Ġter":1446,"Ġbelie":1447,"view":1448,"rain":1449,"Ġpublic":1450,"ead":1451,"Ġsit":1452,"Ġchang":1453,"Ġele":1454,"vironment":1455,"Ġiss":1456,"hers":1457,"Ġvalue":1458,"raph":1459,"Ġpract":1460,"Ġdirect":1461,"az":1462,"Ġtop":1463,"âĢĵ":1464,"ĠSo":1465,"Ġsomething":1466,"arent":1467,"Ġmult":1468,"Ġsays":1469,"Ġland":1470,"Ġrun":1471,"ots":1472,"iving":1473,"Ġknown":1474,"iness":1475,"Ġpur":1476,"Ġrest":1477,"Ġbas":1478,"Ġdise":1479,"Ġ#":1480,"atic":1481,"conom":1482,"Ġold":1483,"Ġlet":1484,"Ġhome":1485,"Ġcase":1486,"ization":1487,"Ġmark":1488,"iqu":1489,"Ġtry":1490,"Ġvis":1491,"Ġsince":1492,"Ġdem":1493,"outh":1494,"Ġâ":1495,"Ġorder":1496,"Ġincluding":1497,"lish":1498,"Ġkeep":1499,"put":1500,"``":1501,"esp":1502,"ĠCon":1503,"Ġpost":1504,"Ġtem":1505,"Ġ|":1506,"Ġmeans":1507,"Ġprof":1508,"ior":1509,"Ġopp":1510,"Ġcap":1511,"Ġenergy":1512,"Ġput":1513,"Ġfin":1514,"Ġquestion":1515,"Ġlight":1516,"ination":1517,"ries":1518,"gen":1519,"Ġseem":1520,"Ġbre":1521,"ret":1522,"Ġfollowing":1523,"Ġmethod":1524,"Ġhead":1525,"sc":1526,"ames":1527,"Ġdesc":1528,"aterial":1529,"ividual":1530,"Ġagainst":1531,"Ġproper":1532,"Ġcurrent":1533,"Ġlittle":1534,"____":1535,"par":1536,"ration":1537,").Ċ":1538,"amp":1539,"ably":1540,"Ġpresent":1541,"ĠDe":1542,"oci":1543,"ified":1544,"ats":1545,"Ġwithin":1546,"ĠEng":1547,"Ġident":1548,"of":1549,"Ġreturn":1550,"Ġlearn":1551,"Ġfeel":1552,"ĠâĢĺ":1553,"iod":1554,"Ġoper":1555,"Ġ{":1556,"ĠAd":1557,"rodu":1558,"Ġsym":1559,"Ġz":1560,"illion":1561,"Ġanal":1562,",âĢĿ":1563,"If":1564,"agn":1565,"ĠCl":1566,"angu":1567,"Ġmove":1568,"Ġpossible":1569,"Ġlist":1570,"Ġ/":1571,"We":1572,"Ġhard":1573,"Ġcirc":1574,"right":1575,"val":1576,"thing":1577,"ording":1578,"ource":1579,"Ġtimes":1580,"Ġcome":1581,"Ġleg":1582,"-f":1583,"||":1584,"ples":1585,"Ġeduc":1586,"-c":1587,"Ġeng":1588,"Ġunt":1589,"ends":1590,"ians":1591,"'re":1592,"Ġproject":1593,"Ġwar":1594,"ĠWhen":1595,"Ġgroup":1596,"ained":1597,"Ġimm":1598,"Ġpot":1599,"Ġopen":1600,"Ġgovernment":1601,"Ġet":1602,"app":1603,"Ġphys":1604,"Ġwhy":1605,"ention":1606,"oms":1607,"ently":1608,"ĠThese":1609,"What":1610,"ek":1611,"Ġmus":1612,"Ġcr":1613,"ources":1614,"Ġmov":1615,"Ġobject":1616,"Ġcaus":1617,"Ġprob":1618,"Ġindividual":1619,"Ġcost":1620,"Ġprogram":1621,"ajor":1622,"Ġable":1623,"Ġname":1624,"ĠAmerican":1625,"oint":1626,"ĠTo":1627,"ards":1628,"hem":1629,"Ġmil":1630,"Ġalways":1631,"ccess":1632,"âĢľ":1633,"erc":1634,"ĠCom":1635,"Ġbus":1636,"Ġmar":1637,"ern":1638,"gin":1639,"Ġwr":1640,"ilar":1641,"St":1642,"ither":1643,"ining":1644,"hor":1645,"Ġdev":1646,"Ġben":1647,"Ġpri":1648,"ĠZ":1649,"ray":1650,"ik":1651,"ling":1652,"ental":1653,"ware":1654,"Ġcontrol":1655,"Ġnever":1656,"Ġnon":1657,"Ġask":1658,"Ġlim":1659,"ĠPh":1660,"Ġorig":1661,"Ġturn":1662,"Ġpercent":1663,"icle":1664,"orth":1665,"Ġfil":1666,"Ġfree":1667,"Ġfour":1668,"Ġmaterial":1669,"Ġeconom":1670,"olution":1671,"not":1672,"Ġbecome":1673,"Ġimpro":1674,"Ġperform":1675,"Ġwomen":1676,"eral":1677,"Ġlow":1678,"rist":1679,"port":1680,"Ġsever":1681,"Ġess":1682,"Ġair":1683,"pect":1684,"Ġleft":1685,"Ġparticular":1686,"ised":1687,"atch":1688,"ĠHowever":1689,"min":1690,"Ġmonth":1691,"Ġsum":1692,"Ġenvironment":1693,"ression":1694,"Ġvol":1695,"ived":1696,"Ġinvol":1697,"resent":1698,"Ġant":1699,"oad":1700,"Ġfamily":1701,"Ġsocial":1702,"Ġnumbers":1703,"Ġanswer":1704,"Ġfore":1705,"ope":1706,"-d":1707,"ane":1708,"{\\":1709,"oney":1710,"use":1711,"vious":1712,"ĠâĢ¢":1713,"ole":1714,"Ġside":1715,"Ġcertain":1716,"Ġfar":1717,"ided":1718,"Ġnext":1719,"Ġpain":1720,"atural":1721,"Ġview":1722,"ills":1723,"Ġdevelopment":1724,"Ġtru":1725,"Ġmen":1726,"Ġnear":1727,"Ġgive":1728,".S":1729,"ĠThat":1730,"ĠPl":1731,"Ġmajor":1732,"Ġbased":1733,"work":1734,"pro":1735,"ories":1736,"Ġinclude":1737,"Ġcult":1738,"Ġcho":1739,"ĠSe":1740,"Ġdra":1741,"Ġtre":1742,"Ġproblems":1743,"ĠUniversity":1744,"Ġhig":1745,"ument":1746,"ailable":1747,"ĠX":1748,"Ġseveral":1749,"ember":1750,"Ġaddition":1751,"over":1752,"ission":1753,"Ġpa":1754,"Ġfre":1755,"idence":1756,"ĠLe":1757,"Ġuntil":1758,"Ġabove":1759,"Ġearly":1760,"Ġlot":1761,"Ġbig":1762,"Ġdel":1763,"Ġspecific":1764,"lu":1765,"ological":1766,"Ġsw":1767,"ina":1768,"ring":1769,"Ġbro":1770,"Ġprovide":1771,"Ġdri":1772,"Ġothers":1773,"Ġtype":1774,"Ġcountry":1775,"Ġhistory":1776,"ĠCan":1777,"ĠCol":1778,"Ġblood":1779,"Ġoccur":1780,"Ġlangu":1781,"Ġvari":1782,"Ġmaking":1783,"ĊĊĊ":1784,"Ġleast":1785,"Ġamount":1786,"ploy":1787,"'m":1788,"ns":1789,"oot":1790,"Ġsure":1791,"Ġgr":1792,"be":1793,"Ġdays":1794,"Ġrad":1795,"Ġrisk":1796,"Ġperiod":1797,"Ġdeterm":1798,"Ġcourse":1799,"rap":1800,"oid":1801,"Ġanim":1802,"ients":1803,"ER":1804,"Ġsing":1805,"ately":1806,"Ġenough":1807,"aps":1808,"yle":1809,"ged":1810,"Ġconn":1811,"Ġer":1812,"arc":1813,"ances":1814,"lished":1815,"Ġ$$":1816,"ĠGod":1817,"Ġkind":1818,"ended":1819,"Ġpress":1820,"ĠAt":1821,"ird":1822,"though":1823,"Ġdisease":1824,"ĠUnited":1825,"ox":1826,"Ġsaf":1827,"ĠRes":1828,"Ġsignific":1829,"Ġshort":1830,"Ġcause":1831,"ww":1832,"ape":1833,"Ġaway":1834,"ym":1835,"ler":1836,"ĠâĢĶ":1837,"ĠOr":1838,"Ġcomput":1839,"As":1840,"ggest":1841,"ending":1842,"idd":1843,"ann":1844,"for":1845,"ograph":1846,"Ġpolit":1847,"There":1848,"ctor":1849,"ĠUS":1850,"Ġhour":1851,"aces":1852,"ĠAll":1853,"rect":1854,"Ġlab":1855,"Ġinvest":1856,"ĠOn":1857,"Ġ*":1858,"Ġavailable":1859,"hing":1860,"Ġtell":1861,"plic":1862,"urther":1863,"ured":1864,"Ġclear":1865,"ĠShe":1866,"play":1867,"ogn":1868,"Ġlater":1869,"eter":1870,"AT":1871,"----":1872,"Ġreason":1873,"Ġrece":1874,"hy":1875,"//":1876,"Ġbenef":1877,"An":1878,"Ġstep":1879,"ĠTe":1880,"Ġamong":1881,"aster":1882,"Ġ<":1883,"face":1884,"Ġaccess":1885,"Ġsuccess":1886,"sh":1887,"ume":1888,"urop":1889,"ocus":1890,"osp":1891,"Ġsuggest":1892,"Ġhaving":1893,"Ġcreat":1894,"How":1895,"Ġterm":1896,"Ġalong":1897,"âĢ¦":1898,"Ġcomb":1899,"alf":1900,"Ġworks":1901,"aken":1902,"Ġintern":1903,"Ġlearning":1904,"ortun":1905,"most":1906,"Ġaffect":1907,"Ġtot":1908,"ength":1909,"Ġpast":1910,"Ġtoget":1911,"Ġ--":1912,"ĠComm":1913,"Ġtogether":1914,"ables":1915,"Ġdone":1916,"Ġspace":1917,"ĠFr":1918,"Ġsqu":1919,"You":1920,"Ġcomplete":1921,"cing":1922,"ones":1923,"icult":1924,"lease":1925,"Ġstruct":1926,"Ġwords":1927,"ready":1928,"Ġthing":1929,"by":1930,"Ġbi":1931,"-t":1932,"Ġyoung":1933,"Ġlocal":1934,"Ġteam":1935,"-p":1936,"Ġactually":1937,"Ġsimilar":1938,"ror":1939,"Ġey":1940,"-m":1941,"Ġscient":1942,"por":1943,"Ġprom":1944,"ĠStates":1945,"Ġcond":1946,"Ġmakes":1947,"verse":1948,"utions":1949,"Ġage":1950,"For":1951,"Ġpay":1952,"une":1953,"Ġappear":1954,"Ġareas":1955,"Ġfri":1956,"ĠChrist":1957,"etic":1958,"Ġdue":1959,"Ġgot":1960,"uture":1961,"stit":1962,"}}":1963,"Ġ,":1964,"ĠBl":1965,"Ġinteg":1966,"Ġfull":1967,"Ġ:":1968,"Ġbusiness":1969,"Ġtext":1970,"Ġcharacter":1971,"Ġresults":1972,"Ġlikely":1973,"Ġdiscuss":1974,"isc":1975,"Ġcreate":1976,"mit":1977,"Ġflow":1978,"Ġmoney":1979,"Ġtoday":1980,"ĠWor":1981,"urope":1982,"Ġalready":1983,"Ġnatural":1984,"Ġrepresent":1985,"pos":1986,"Ġgame":1987,"Ġexist":1988,"Ġdescrib":1989,"Ġmot":1990,"aining":1991,"_{":1992,"augh":1993,"Ġeither":1994,"Ġobs":1995,"utes":1996,"ample":1997,"Ġworking":1998,"Ġdr":1999,"ively":2000,"Ġnorm":2001,"verage":2002,"Ġkey":2003,"ream":2004,"ored":2005,"ges":2006,"ators":2007,"Ġsignificant":2008,"Ġspecies":2009,"Ġmass":2010,"yl":2011,"Ġdig":2012,"reen":2013,"ledge":2014,"Ġrecord":2015,"Ġassoci":2016,"Ġgeneral":2017,"Ġwhether":2018,"Ġneeds":2019,"sy":2020,"Ġfocus":2021,"'ve":2022,"ison":2023,"let":2024,"omet":2025,"Ġusually":2026,"Ġplant":2027,"Ġprevent":2028,"Ġparent":2029,"aim":2030,"Ġang":2031,"Ġcrit":2032,"Ġindust":2033,"Ġdoesn":2034,"Ġmind":2035,"Ġenc":2036,"Ġdeath":2037,"ott":2038,"vert":2039,"Ġapplic":2040,"Ġwhole":2041,"Ġheart":2042,"ecially":2043,"Ġexperience":2044,"asing":2045,"Ġquestions":2046,"Ġways":2047,"Ġthought":2048,"Ġrelations":2049,"Ġbegin":2050,"Ġnecess":2051,"aring":2052,"Ġstory":2053,"^{":2054,"ĠJoh":2055,"af":2056,"Ġdifficult":2057,"Ġneg":2058,"ĠÂł":2059,"erence":2060,"Ġlanguage":2061,"ule":2062,"ĠCent":2063,"Ġcalcul":2064,"ateg":2065,"ned":2066,"Ġstrong":2067,"Ġfac":2068,"Ġarg":2069,"ency":2070,"ysis":2071,"Ġopt":2072,"Ġbelow":2073,"selves":2074,"Ġbehav":2075,".âĢĿĊ":2076,"ĠEurope":2077,"Ġspecial":2078,"iting":2079,"Ġauthor":2080,"Ġacross":2081,"Ġconsider":2082,"ĠQu":2083,"Ġmillion":2084,"ĠBe":2085,"side":2086,"ĠAf":2087,"Ġtreatment":2088,"Ġhouse":2089,"Ġsystems":2090,"Ġnet":2091,"ĠMar":2092,"oman":2093,"ĠCal":2094,"Ġword":2095,"Ġvir":2096,"Ġonce":2097,"Ġlevels":2098,"ĠOne":2099,"Ġtalk":2100,"icro":2101,"istic":2102,"Ġincrease":2103,"Ġhowever":2104,"ley":2105,"Ġimpact":2106,"Ġhigher":2107,"lement":2108,"Ġfuture":2109,"Ġseen":2110,"ask":2111,"ique":2112,";Ċ":2113,"Ġrange":2114,"Ġcolle":2115,"Ġmodel":2116,"Ġrather":2117,"Ġlog":2118,"Ġstat":2119,"Ġfr":2120,"ery":2121,"cle":2122,"especially":2123,"orts":2124,"iple":2125,"Ġweek":2126,"Ġrate":2127,"sp":2128,"Ġteac":2129,"Ġpoints":2130,"Ġhappen":2131,"Ġcells":2132,"Ġsal":2133,"(x":2134,"igure":2135,"omes":2136,"Ġcommunity":2137,"Ġtemper":2138,"ĠMay":2139,"Ġaccount":2140,"atory":2141,"Ġill":2142,"Ġvarious":2143,"Ġpopulation":2144,"ma":2145,"Ġidea":2146,"Ġhy":2147,"Ġfield":2148,"Ġchanges":2149,"Ġdam":2150,"Ġsingle":2151,"Ġdeg":2152,"Ġclose":2153,"uck":2154,"ĠGo":2155,"ilities":2156,"Ġjob":2157,"Ġtool":2158,"ires":2159,"Ġsimple":2160,"Ġcame":2161,"eb":2162,"set":2163,"rug":2164,"aves":2165,"Ġrequire":2166,"new":2167,"agement":2168,"Ġsound":2169,"Ġfall":2170,"Ġhold":2171,"Ġcut":2172,"ising":2173,".com":2174,"ĠWith":2175,"ext":2176,"Ġtrue":2177,"Ġdiv":2178,"ump":2179,"ON":2180,"Ġtotal":2181,"Ġeducation":2182,"Ġvers":2183,"ĠNational":2184,"Ġprofess":2185,"ruction":2186,"]Ċ":2187,"Ġsubject":2188,"Ġsize":2189,"Ġever":2190,"Ġabs":2191,"iation":2192,"Ġdoing":2193,"Ġelse":2194,"ilt":2195,"Ġstop":2196,"Ġevent":2197,"Ch":2198,"ued":2199,"ctions":2200,"IN":2201,"Ġindic":2202,"Ġtechnology":2203,"Ġpred":2204,"yn":2205,"unt":2206,"Ġrespons":2207,"Ġbit":2208,"Ġespecially":2209,"Ġfund":2210,"Ġground":2211,"bit":2212,"ush":2213,"str":2214,"ĠBrit":2215,"oll":2216,"Ġconditions":2217,"uation":2218,"esc":2219,"}\\":2220,"fficient":2221,"wards":2222,"Ġlive":2223,"Ġcases":2224,"ĠSome":2225,"'ll":2226,"obal":2227,"ĠNo":2228,"itor":2229,"|Ċ":2230,"Ġwind":2231,"ĠRep":2232,"wh":2233,"ply":2234,"âĢĻre":2235,"Ġterms":2236,"Ġoffic":2237,"Ġpaper":2238,"ĠâĪ":2239,"://":2240,"ĠMed":2241,"Ġfail":2242,"aut":2243,"Ġhalf":2244,"ĠEar":2245,"Ġprim":2246,"rict":2247,"Ġfive":2248,"Ġcity":2249,"To":2250,"Ġemploy":2251,"Ġmeasure":2252,"Ġlower":2253,"rel":2254,"ude":2255,"Ġbat":2256,"Ġcannot":2257,"Ġforce":2258,"Ġarticle":2259,"Ġmarket":2260,"Ġcheck":2261,"ĠDo":2262,"Ġred":2263,"edi":2264,"Ġinit":2265,"Ġblack":2266,"ibility":2267,"When":2268,"Ġfurther":2269,"aching":2270,"}$":2271,"Ġsent":2272,"Ġconcept":2273,"ĠÂ":2274,"Ġpolic":2275,"Ġcountries":2276,"ĠCar":2277,"iol":2278,"mber":2279,"Ġconcer":2280,"):Ċ":2281,"ĠWar":2282,"ES":2283,"ands":2284,"Ġsens":2285,"Ġvalues":2286,".ĊĊĊ":2287,"ipp":2288,"ification":2289,"apt":2290,"Ġquick":2291,"Ġ`":2292,"Ġcentury":2293,"Ġbrain":2294,"Ġcomes":2295,"lam":2296,"Ġattack":2297,"Ġtypes":2298,"ung":2299,"ips":2300,"Ġpub":2301,"Ġdom":2302,"Ġdidn":2303,"atures":2304,"ĠEnglish":2305,"!Ċ":2306,"Ġtaken":2307,"Ġestab":2308,"Ġann":2309,"So":2310,"chie":2311,"illed":2312,"ĠTr":2313,"roll":2314,"Ġalmost":2315,"ĠGen":2316,"Ġcorrect":2317,"Ġrole":2318,"Ġlove":2319,"Ġimprove":2320,"ourn":2321,"Ġweight":2322,"Ġwin":2323,"ula":2324,"left":2325,"epend":2326,"ĠÃ":2327,"ĠBy":2328,"Ġconsum":2329,"Ġpositive":2330,"Ġyet":2331,"Ġknowledge":2332,"Ġentire":2333,"ney":2334,"Ġsurface":2335,"Ġpotential":2336,"Ġbecame":2337,"ĠAm":2338,"Ġtook":2339,"Ġchall":2340,"AR":2341,"But":2342,"ĠAfric":2343,"Ġsense":2344,"Ġequal":2345,"Ġeffects":2346,"Ġlength":2347,"rams":2348,"Ġrelationship":2349,"Ġsomeone":2350,"Ġcomplex":2351,"Ġago":2352,"fer":2353,"ĠIm":2354,"....":2355,"like":2356,"onse":2357,"ĠPr":2358,"duct":2359,"ĠGe":2360,"Ġmeet":2361,"acc":2362,"ĠEn":2363,"Ġinflu":2364,"ript":2365,"Ġphot":2366,"rad":2367,"ĠWorld":2368,"Ġsite":2369,"Ġsource":2370,"Ġneeded":2371,"urity":2372,"Ġgroups":2373,"Ġdetail":2374,"Ġitself":2375,"ĠGerm":2376,"Ġeff":2377,"oon":2378,".\"ĊĊ":2379,"overed":2380,"Ġbir":2381,"Ġscience":2382,"Ġ$\\":2383,"Ġ)":2384,"Al":2385,"Ġfrequ":2386,"Ġsolution":2387,"Ġcancer":2388,"Ġchem":2389,"lying":2390,"Ġphysical":2391,"Ġgetting":2392,"Ġprobably":2393,"empt":2394,"Ġcy":2395,"Ġposition":2396,"Ġdoc":2397,"hern":2398,"Ġbelieve":2399,"AS":2400,"Ġmor":2401,"ival":2402,"Ġspe":2403,"math":2404,"urs":2405,"Ġupon":2406,"Ġdistrib":2407,"Ġcompany":2408,"Ġpath":2409,"ta":2410,"reg":2411,"iver":2412,"ĠĠĠĠĠĠĠĠĠĠĠĠĠĠĠ":2413,"Ġbar":2414,"Ġthemselves":2415,"ils":2416,"Ġwhite":2417,"Ġprotect":2418,"Ġloss":2419,"Ġcop":2420,"Ġdest":2421,"ites":2422,"Ġhours":2423,"Ex":2424,"urch":2425,"\",":2426,"Ġpolitical":2427,"anks":2428,"Ġdefin":2429,"reme":2430,"Ġpie":2431,"Ġrequired":2432,"fact":2433,"Ġmembers":2434,"Ġens":2435,"Ġvide":2436,"ried":2437,"ging":2438,"ĠJohn":2439,"ĠAmerica":2440,"Ġaddress":2441,"arget":2442,"Ġport":2443,"Ġmonths":2444,"sych":2445,"Ġsuper":2446,"ĠAb":2447,"ched":2448,"iddle":2449,"Ġtax":2450,"Ġintrodu":2451,"Ġissues":2452,"ivity":2453,"Ġcontrib":2454,"Ġproduction":2455,"dd":2456,"ero":2457,"Ġmatter":2458,"my":2459,"aced":2460,"ĠAss":2461,"Ġaccording":2462,"Ġstandard":2463,"def":2464,"Ġobserv":2465,"Ġlooking":2466,"where":2467,"Ġshows":2468,"oura":2469,"ication":2470,"Ġclaim":2471,"Ġsimply":2472,"Ġpressure":2473,"ober":2474,"Ġrecogn":2475,"Ġsat":2476,"uff":2477,"Ġbuilding":2478,"ĠMan":2479,"Ġtaking":2480,"Ġlay":2481,"Wh":2482,"Ġquality":2483,"Ġetc":2484,"Ġwriting":2485,"ĠSy":2486,"Ġface":2487,"ptoms":2488,"Ġplants":2489,"Ġrele":2490,"Ġevidence":2491,"Ġstates":2492,"Ġnight":2493,"Ġproducts":2494,"Ġcreated":2495,"Ġstudies":2496,"Ġrelig":2497,"Ġgrowth":2498,"Ġresearc":2499,"Ġpractice":2500,"Ġachie":2501,"iding":2502,"leep":2503,"Ġspeed":2504,"Ġsoft":2505,"Ġdeal":2506,"Ġbad":2507,"inary":2508,"ĠIntern":2509,"ches":2510,"Ġrul":2511,"Ġbreak":2512,"imum":2513,"Ġpatients":2514,"Ġeasy":2515,"Ġactivity":2516,"Ġrepl":2517,"And":2518,"Ġur":2519,"ises":2520,"Ġparts":2521,"acy":2522,"Ġconsidered":2523,"Ġfactors":2524,"Ġequation":2525,"Ġprevious":2526,"Ġdrug":2527,"ows":2528,"Ġpict":2529,"Ġaverage":2530,"Ġaccept":2531,"ivil":2532,"Ġprop":2533,"Ġlink":2534,"):":2535,"ĠApp":2536,"Ġcollect":2537,"Ġmom":2538,"ĠStud":2539,"go":2540,"Ġrelated":2541,"gest":2542,"\".":2543,"ike":2544,"Ġunderstanding":2545,"Ġengine":2546,"Ġlo":2547,"bon":2548,"AN":2549,"Ġseries":2550,"usion":2551,"Ġdifference":2552,"ences":2553,"Ġexact":2554,"Ġge":2555,"Ġanything":2556,"Ġ>":2557,"Ġanalysis":2558,"Ġresources":2559,"ĠGu":2560,"ores":2561,"Ġliving":2562,"earch":2563,"Ġgraph":2564,"rand":2565,"-l":2566,"Ġparticip":2567,"Ġflu":2568,"ene":2569,"ĠHis":2570,"ales":2571,"Ġtradition":2572,"OR":2573,"Ġwrite":2574,"Ġapproach":2575,"ĠĠĠĠĠ":2576,"Ġstudent":2577,"iction":2578,"enn":2579,"ister":2580,"Ġoriginal":2581,"Ġnational":2582,"Ġnature":2583,"Ġdou":2584,"Ġmess":2585,"Ġreact":2586,"ae":2587,"itary":2588,"chan":2589,"ype":2590,"Ġpage":2591,"Ġgas":2592,"Ġrespect":2593,"Ġpriv":2594,"ustom":2595,"Ġskills":2596,"Ġwritten":2597,"Ġwide":2598,"sequ":2599,"Ġseems":2600,"ensive":2601,"Ġrecomm":2602,"part":2603,"Ġfamil":2604,"aged":2605,"ID":2606,"light":2607,"Ġsex":2608,"ĠYork":2609,"ĠAfter":2610,"Ġcomputer":2611,"Ġri":2612,"ĠInt":2613,"ĠNorth":2614,"ĠSouth":2615,"Ġtravel":2616,"ai":2617,"Ġactivities":2618,"Ġsix":2619,"Ġdeveloped":2620,"Ġlonger":2621,"Ġability":2622,"Ġcontent":2623,"izing":2624,"Ġnut":2625,"Ġsepar":2626,"irm":2627,"Ġcondition":2628,"Ġissue":2629,"ĠCont":2630,"org":2631,"bol":2632,"Ġopportun":2633,"ĠSu":2634,"Ġaction":2635,"Ġfire":2636,"ider":2637,"arr":2638,"))":2639,"oph":2640,"Ġquite":2641,"fect":2642,"Ġcoll":2643,"Ġwent":2644,"Ġpattern":2645,"nces":2646,"Ġconc":2647,"Ġprint":2648,"istance":2649,"hemat":2650,"Ġmusic":2651,"Ġnecessary":2652,"ournal":2653,"Ġoil":2654,"Ġdog":2655,"Ġreduce":2656,".g":2657,"Ġshown":2658,"ĠCo":2659,"Ġnormal":2660,"mb":2661,"angle":2662,"uel":2663,"Ġmedical":2664,"irl":2665,"ĠState":2666,"Ġeconomic":2667,"text":2668,"ius":2669,"Ġpersonal":2670,"Ġste":2671,"Ġtable":2672,"Ġdeb":2673,"Ġdraw":2674,"Ġbase":2675,"aving":2676,"Ġonline":2677,"He":2678,"imal":2679,"Ġla":2680,".\"Ċ":2681,"istics":2682,"ĠPer":2683,"Ġassociated":2684,"Ġreading":2685,"Ġbegan":2686,"ĠNot":2687,"Ġstarted":2688,"-w":2689,"Ġsomet":2690,"Ġtrying":2691,"anced":2692,"Ġinstead":2693,"enge":2694,"lt":2695,"ift":2696,"ĠAct":2697,"Ġreview":2698,"ying":2699,"Ġsymptoms":2700,"Ġisn":2701,"umb":2702,"Ġimage":2703,"uted":2704,"Ġcolor":2705,"Ġservice":2706,"Ġprinc":2707,"oor":2708,"ze":2709,"ĠDr":2710,"erve":2711,"att":2712,"Ġbring":2713,"Ġslow":2714,"ony":2715,"Ġrights":2716,"Ġtakes":2717,"!ĊĊ":2718,"Ġparents":2719,"Ġhtt":2720,"rown":2721,"Ġmaint":2722,"Ġcode":2723,"Ġexpress":2724,"pe":2725,"Ġsun":2726,"ĠHealth":2727,"ĠMy":2728,"rt":2729,"Ġmodern":2730,"ety":2731,"Ġregard":2732,"Ġhistor":2733,"Ġgreater":2734,"Ġincreased":2735,"Ġmach":2736,"NA":2737,"ĠJan":2738,"osis":2739,"Ġcat":2740,"Ġliter":2741,"Ġcomment":2742,"Ġwa":2743,"ese":2744,"Ġeffective":2745,"Ġskin":2746,"IS":2747,"ĠMe":2748,"bo":2749,"à¤":2750,"Ġnothing":2751,"Ġtarget":2752,"Ġsuff":2753,"het":2754,"Ġresponse":2755,"aging":2756,"add":2757,"raction":2758,"Ġprovides":2759,"Ġexperien":2760,"Ġglobal":2761,"Ġpopular":2762,"Ġfeed":2763,"âĪ":2764,"Ġheav":2765,"Ġrev":2766,"Ġexc":2767,"Ġmeaning":2768,"ĠII":2769,"Ġdiet":2770,"ĠAust":2771,"hold":2772,"ĠEarth":2773,"lex":2774,"Ġstress":2775,"iment":2776,"Ġbur":2777,"**":2778,"astic":2779,"iam":2780,"aff":2781,"Ġexerc":2782,"itude":2783,"ems":2784,"Ġsometimes":2785,"Ġsquare":2786,"ties":2787,"ĠThen":2788,"Ġfeet":2789,"Ġut":2790,"Ġoutside":2791,"Ġservices":2792,"Ġfat":2793,"equ":2794,"Ġhor":2795,"artment":2796,"Ġminutes":2797,"Ġver":2798,"Ġwon":2799,"amin":2800,"Ġrelative":2801,"Ġproduce":2802,"Ġanimals":2803,"EN":2804,"ached":2805,"ming":2806,"ster":2807,"ĠJew":2808,"apan":2809,"Ġnegative":2810,"Ġclimate":2811,"Ġgreen":2812,"Ġtold":2813,"icles":2814,"Ġviol":2815,"lor":2816,"ecause":2817,"Ġattempt":2818,"hib":2819,"Ġregular":2820,"son":2821,"atives":2822,"Ġregion":2823,"rew":2824,"Ġclean":2825,"Ġadult":2826,"ĠPe":2827,"ĠDep":2828,"Ġmiss":2829,"Ġcompan":2830,"Ġheat":2831,"Ġcompet":2832,"Ġtemperature":2833,"Ġprec":2834,"ĠSoc":2835,"Ġep":2836,"erous":2837,"Ġuses":2838,"Ġcamp":2839,"Ġrecent":2840,"Ġce":2841,"Ġstructure":2842,"raft":2843,"Ġbuilt":2844,"Ġsequ":2845,"Ġincreasing":2846,"Ġmagn":2847,"Ġmaterials":2848,"Ġselect":2849,"Ġcoun":2850,"fully":2851,"ounds":2852,"Ġmax":2853,"haps":2854,"Ġpublished":2855,"Ġarch":2856,"ama":2857,"uth":2858,"hood":2859,"Ġresearchers":2860,"Ã©":2861,"Ġball":2862,"ropri":2863,"Ġfront":2864,"ops":2865,"Ġbehind":2866,"Ġshare":2867,"Ġwalk":2868,"Ġindustry":2869,"ari":2870,"uments":2871,"lim":2872,"ev":2873,"Ġcou":2874,"ĠÎ":2875,"ĠWill":2876,"arily":2877,"Ġstra":2878,"Ġdeep":2879,"Ġemer":2880,"rix":2881,"Ġavoid":2882,"ĠUs":2883,"Ġfile":2884,"Ġfish":2885,"ĠPres":2886,"Ġlives":2887,"elling":2888,"order":2889,"Ġden":2890,"Ġmicro":2891,"Ġexcept":2892,"aily":2893,"Ġlines":2894,"ĠSec":2895,"Ġprovided":2896,"Ġsociety":2897,"Ġinteract":2898,"ening":2899,"Ġbasic":2900,"ceed":2901,"Ġfav":2902,"Ġcontain":2903,"'d":2904,"asc":2905,"uge":2906,"vere":2907,"Ġmanagement":2908,"ĠWhile":2909,"-h":2910,"Ġvideo":2911,"ĠEm":2912,"Ġinside":2913,"Ġeverything":2914,"ederal":2915,"________":2916,"itch":2917,"reng":2918,"pose":2919,"Ġthird":2920,"amed":2921,"Ġbal":2922,"Ġevents":2923,"Ġdistance":2924,"Ġprote":2925,"head":2926,"Ġcompon":2927,"Ġasked":2928,"inks":2929,"AL":2930,"minist":2931,"Ġhealthy":2932,"Ġconstant":2933,"Ġkids":2934,"olic":2935,"itation":2936,"abor":2937,"imately":2938,"ension":2939,"Ġcontact":2940,"oring":2941,"Ġsleep":2942,"apter":2943,"ĠPar":2944,"Ġlack":2945,"Ġindepend":2946,"Ġsearch":2947,"Ġsurv":2948,"ĠNow":2949,"Ġbehavior":2950,"Ġcontinue":2951,"ĠAug":2952,"ault":2953,"ĠBritish":2954,"Ġexpect":2955,"cient":2956,"Ġearth":2957,"dis":2958,"Ġfight":2959,"bra":2960,"Ġinvolved":2961,"Ġder":2962,"Ġtraining":2963,"Ġwrong":2964,"-in":2965,"rought":2966,"Ġmethods":2967,"Ġassess":2968,"ections":2969,"Ġthroughout":2970,"Ġserious":2971,"ners":2972,"ĠHist":2973,"Ġindividuals":2974,"book":2975,"Ġroom":2976,"Ġcross":2977,"Ġdetermine":2978,"ccording":2979,"Ġadded":2980,"Ġpack":2981,"IC":2982,"ĠOct":2983,"Ġaff":2984,"name":2985,"ĠPre":2986,"Ġgives":2987,"Ġelectric":2988,"estern":2989,"Ġlat":2990,"Ġeat":2991,"aries":2992,"na":2993,"elt":2994,"Ġorigin":2995,"Ġmultiple":2996,"On":2997,"back":2998,"Ġtheory":2999,"Ġmother":3000,"rs":3001,"Ġmechan":3002,"-based":3003,"Ġsafe":3004,"Ġthreat":3005,"emic":3006,"Ġconduct":3007,"Ġagree":3008,"Ġremov":3009,"Ġimplement":3010,"Ġcustom":3011,"Ġappl":3012,"ĠPart":3013,"sec":3014,"idge":3015,"Ġinj":3016,"Ġpret":3017,"style":3018,"ĠEd":3019,"oly":3020,"erson":3021,"ĠJapan":3022,"Ġpoor":3023,"Ġspread":3024,"Ġlate":3025,"Ġfem":3026,"ada":3027,"rm":3028,"ief":3029,"oke":3030,"Ġfactor":3031,"Ġchemical":3032,"Ġfoot":3033,"Ġeasily":3034,"Ġrefer":3035,"ĠYour":3036,"Ġstri":3037,"Ġmedic":3038,"ucle":3039,"rench":3040,"Ġsil":3041,"Ġcaused":3042,"ades":3043,"cos":3044,"ĠTw":3045,"Ġelements":3046,"Ġones":3047,"Ġmedia":3048,"wise":3049,"Ġdesigned":3050,"ender":3051,"_d":3052,"Ġquant":3053,"Ġschools":3054,"ĠMin":3055,"Pro":3056,"undred":3057,"ulations":3058,"Ġsoon":3059,"Ġattention":3060,"room":3061,"Ġincludes":3062,"aches":3063,"osing":3064,"Ġfarm":3065,"Ġled":3066,"Ġfriends":3067,"Ġobt":3068,"Ġperformance":3069,"Ġthinking":3070,"Ġwebs":3071,"Ġnetwork":3072,"ixed":3073,"Ġstay":3074,"oes":3075,"ille":3076,"Ġwall":3077,"gar":3078,"Ġextreme":3079,"rate":3080,"ĠSchool":3081,"load":3082,"joy":3083,"Ġgenerally":3084,"Ġdemon":3085,"Ġir":3086,"Ġmoment":3087,"ĠApr":3088,"Ġrat":3089,"Ġsubst":3090,"Ġeveryone":3091,"-y":3092,"Ġquickly":3093,"Ġpoly":3094,"Ġwhose":3095,"Ġconsist":3096,"ground":3097,"_t":3098,"Ġcover":3099,"Ġhelps":3100,"Ġcommit":3101,");":3102,"Ġstreng":3103,"ana":3104,"oles":3105,"Ġtherefore":3106,"Ġideas":3107,"Ġcauses":3108,"Ġprice":3109,"ĠKing":3110,"Ġsoil":3111,"Ġthous":3112,"rast":3113,"Ġgoes":3114,"Ġsold":3115,"Ġbooks":3116,"],":3117,"AC":3118,"vey":3119,"ufact":3120,"Ġmath":3121,"==":3122,"Ġmovement":3123,"Ġbenefits":3124,"Ġthus":3125,"hel":3126,"Ġeyes":3127,"Ġhimself":3128,"ĠMore":3129,"Ġprograms":3130,"enc":3131,"asons":3132,"ully":3133,"ĠComp":3134,"rim":3135,"Ġhands":3136,"Ġlarger":3137,"Ġparticularly":3138,".)":3139,"Ġspeak":3140,"ÂłÂłÂł":3141,"rated":3142,"IT":3143,"come":3144,"Ġcard":3145,"used":3146,"cell":3147,"Ġfunctions":3148,"Ġmention":3149,"Ġcompanies":3150,"Ġfinal":3151,"Ġculture":3152,"Ġidentify":3153,"unch":3154,"iber":3155,"eal":3156,"Ġlost":3157,"]ĊĊ":3158,"dom":3159,"ĠLet":3160,"Ġpsych":3161,"Ġtree":3162,"Ġwild":3163,"Ġsaw":3164,"Ġsituation":3165,"Ġdamage":3166,"oe":3167,"Ġroad":3168,"ament":3169,"Ġdocument":3170,"Ġsus":3171,"isions":3172,"Ġpolicy":3173,"Ġunit":3174,"rote":3175,"Ġuser":3176,"RE":3177,"Ġfinanc":3178,"Ġbab":3179,"ĠOb":3180,"Ġuseful":3181,"rec":3182,"Ġord":3183,"ĠHere":3184,"Ġwond":3185,"stitute":3186,"One":3187,"ashing":3188,"ights":3189,"ĠCount":3190,"Ġdirectly":3191,"Ġcred":3192,"Ġsection":3193,"ronic":3194,").ĊĊ":3195,"eks":3196,"Ġaltern":3197,"Ġsn":3198,"Ġencoura":3199,"Ġinvestig":3200,"Ġaud":3201,"Ġvariety":3202,"resp":3203,"Ġtherap":3204,"ĠHar":3205,"',":3206,"Ġtown":3207,"Ġimmedi":3208,"?\"":3209,"Ġreported":3210,".e":3211,"Ġpoll":3212,"Ġversion":3213,"Ġnews":3214,"Ġforms":3215,"iles":3216,"...ĊĊ":3217,"ĠSim":3218,"Ġemot":3219,"uary":3220,"Ġincluded":3221,"Ġoffer":3222,"Ġearli":3223,"Ġfram":3224,"eds":3225,"Ġmilitary":3226,"mon":3227,"irit":3228,"ription":3229,"Ġheld":3230,"Ġmulti":3231,"ĠMc":3232,"Ġfast":3233,"ĠMat":3234,"Ġdirection":3235,"ĠSol":3236,"rig":3237,"Ġbox":3238,"Ġestim":3239,"Ġchalleng":3240,"By":3241,"lection":3242,"Ġfigure":3243,"Ġgirl":3244,"ened":3245,"Ġallows":3246,"Ġpick":3247,"ÂłÂłÂłÂłÂłÂłÂłÂł":3248,"ĠAg":3249,"Ġharm":3250,"Ġfru":3251,"Ġproduced":3252,"Ġtur":3253,"Ġenvironmental":3254,"ĠChina":3255,"estion":3256,"uous":3257,"www":3258,"Ġappropri":3259,"qrt":3260,"Ġblock":3261,"Ġprep":3262,"Ġunique":3263,"Ġeval":3264,"Ġhundred":3265,"duc":3266,"Ġdivid":3267,"lands":3268,"Ġfather":3269,"(n":3270,"Ġhot":3271,"Ġfit":3272,"ĠSm":3273,"Ġsources":3274,"Ġdiagn":3275,"uit":3276,"Ġformula":3277,"Ġvisit":3278,"ha":3279,"pper":3280,"Ġalthough":3281,"Ġensure":3282,"Ġcapt":3283,"ĠIndia":3284,"-g":3285,"Ġproperty":3286,"Ġaware":3287,"ĠCons":3288,"(self":3289,"oin":3290,"Ġkill":3291,"Ġjud":3292,"rees":3293,"Ġenjoy":3294,"ED":3295,"Ġdang":3296,"ura":3297,"Ġcit":3298,"Ġtowards":3299,"ĠMost":3300,"rial":3301,"Ġperfect":3302,"ino":3303,"Ġexactly":3304,"umber":3305,"inate":3306,"Ġlif":3307,"ields":3308,"Ġcarbon":3309,"Ġofficial":3310,"Ġwatch":3311,"Ġtend":3312,"eration":3313,"Ġroot":3314,"ellow":3315,"Ġnation":3316,"rie":3317,"ĠJu":3318,"ĠScience":3319,"Ġsecurity":3320,"ĠRec":3321,"ran":3322,"yond":3323,"Ġrout":3324,"ĠMany":3325,"Ġcivil":3326,"Ġcenter":3327,"Ġbuy":3328,"omb":3329,"ĠResearch":3330,"Ġremember":3331,"Ġgrowing":3332,"Ġessay":3333,"ii":3334,"ĠFirst":3335,"Ġcontains":3336,"Ġwood":3337,"ĠPa":3338,"display":3339,"Ġimag":3340,"Ġreve":3341,"ĠFeb":3342,"Ġinteresting":3343,"####":3344,"ĠAustral":3345,"Ġdecre":3346,"Ġscientists":3347,"Ġelement":3348,"Ġessential":3349,"Ġanaly":3350,"ests":3351,"Ġhost":3352,"off":3353,"Ġprogress":3354,"Ġtit":3355,"ĠReg":3356,"bl":3357,"čĊ":3358,"airs":3359,"Ġmanufact":3360,"Ġbecomes":3361,"Ġanyone":3362,"vant":3363,"Ġleaders":3364,"Ġscientific":3365,"âĢĻve":3366,"Ġrule":3367,"Ġsort":3368,"Ġcoming":3369,"--------":3370,"Ġreflect":3371,"Ġsymbol":3372,"ĠCO":3373,"Ġsolve":3374,"Ġmiddle":3375,"Ġseason":3376,"pped":3377,"ðĿ":3378,"know":3379,"Ġwanted":3380,"Ġsoftware":3381,"Ġsafety":3382,"ancy":3383,"Ġadditional":3384,"Ġbott":3385,"Ġdead":3386,"Ġteachers":3387,"Ġwrote":3388,"Ġtools":3389,"Ġdark":3390,"ban":3391,"Ġwarm":3392,"Ġbirth":3393,"Ġwoman":3394,"lation":3395,"Ġinterp":3396,"rick":3397,"ricult":3398,"Ġplaces":3399,"Ġapplication":3400,"Ġconcent":3401,"âĢĻll":3402,"Ġleave":3403,"Ġremain":3404,"Ġbeginning":3405,"inct":3406,"ĠOf":3407,"Ġworth":3408,"ography":3409,"term":3410,"Ġcompletely":3411,"ĠVal":3412,"Now":3413,"Ġpretty":3414,"ĠJust":3415,"Ġgets":3416,"ham":3417,"Ġprimary":3418,"ĠChar":3419,"Ġdecision":3420,"ST":3421,"ĠBar":3422,"Ġgames":3423,"Ġyourself":3424,"bor":3425,"med":3426,"ĠCor":3427,"Ġfriend":3428,"Ġhope":3429,"Ġpicture":3430,"ĠGl":3431,"aly":3432,"ĠFrom":3433,"Ġcompared":3434,"aught":3435,"Ġmill":3436,"Ġinn":3437,"Ġhttp":3438,"Ġexamples":3439,"Ġcosts":3440,"ervation":3441,"Ġrunning":3442,"abet":3443,"ĠMon":3444,"ĠNe":3445,"ĠOther":3446,"ĠDav":3447,"Ġprior":3448,"Ġinternational":3449,"Ġmis":3450,"Ġshall":3451,"Ġadj":3452,"Ġweeks":3453,"ĠDec":3454,"ulate":3455,"Ġcontext":3456,"ĠFrench":3457,"displaystyle":3458,"ĠEl":3459,"Ġdistribution":3460,"Ġextra":3461,"Ġunc":3462,"ares":3463,"Ġpurpose":3464,"-st":3465,"_c":3466,"Ġfeatures":3467,"Ġexpected":3468,"Ġdaily":3469,"Ġcritical":3470,"Ġfair":3471,"Ġhyp":3472,"Ġachieve":3473,"Ġï":3474,"Ġast":3475,"Ġbacter":3476,"ĠÂłĠÂł":3477,"mat":3478,"Ġdeveloping":3479,"ĠAre":3480,"ĠWhy":3481,"Ġdrink":3482,"iforn":3483,"Ġconvers":3484,"ĠAc":3485,"Ġfoods":3486,"mar":3487,".org":3488,"Ġchoose":3489,"Ġson":3490,"Ġanimal":3491,"Ġbroad":3492,"Ġdecl":3493,"ĠWest":3494,"Ġforest":3495,"ĠMarch":3496,"Ġmid":3497,"Ġox":3498,"ĠKe":3499,"Ġrules":3500,"Ġhyd":3501,"Ġtraditional":3502,"bed":3503,"Ġsaying":3504,"vention":3505,"Ġpatient":3506,"Ġlimit":3507,"Ġeth":3508,"Ġcommand":3509,"ought":3510,"Ġeye":3511,"Ġcarry":3512,"At":3513,"ĠRuss":3514,"Ġhighly":3515,"Ġapprox":3516,"Ġmemory":3517,"ĠPresident":3518,"uk":3519,"hest":3520,"Sh":3521,"ocr":3522,"Ġlaws":3523,"Ġcool":3524,"oming":3525,"Ġdemand":3526,"Ġcam":3527,"Â°":3528,"alse":3529,"alle":3530,"overy":3531,"Ġinstall":3532,"Ġprivate":3533,"Ġcentral":3534,"Ġsust":3535,"Ġfilm":3536,"Ġforces":3537,"Ġbrought":3538,"zz":3539,"ĠSince":3540,"Ġcapac":3541,"erg":3542,"Ġgave":3543,"Ġdefined":3544,"Ġsample":3545,"Ġaspect":3546,"iency":3547,"Ġrequires":3548,"rag":3549,"Ġobjects":3550,"omp":3551,"fort":3552,"Ġdemonstr":3553,"Ġscreen":3554,"ĠâĪĴ":3555,"Ġnearly":3556,"Ġload":3557,"Ġsmaller":3558,"Ġnucle":3559,"Ġcapital":3560,"Ġsteps":3561,"}$$":3562,"key":3563,"ifornia":3564,"raw":3565,"Ġsides":3566,"ithm":3567,"Ġmoving":3568,"osition":3569,"Ġdescribed":3570,"Ġassum":3571,"ĠCenter":3572,"Ġdegree":3573,"ube":3574,"Ġmiles":3575,"Ġfinancial":3576,"reet":3577,"Ġstru":3578,"oice":3579,"Ġvict":3580,"ĠEuropean":3581,"osure":3582,"oud":3583,"Ġangle":3584,"AM":3585,"Ġreach":3586,"Ġbasis":3587,"Ġten":3588,"sqrt":3589,"ĠArt":3590,"Ġdat":3591,"That":3592,"ĠEven":3593,"Ġsea":3594,"Ġgoal":3595,"Ġ$$\\":3596,"Ġproced":3597,"Ġtou":3598,"ĠMus":3599,"Ġlimited":3600,"Ġinstit":3601,"entially":3602,"iter":3603,"ĠJune":3604,"odes":3605,"Ġbeaut":3606,"ĠRet":3607,"cks":3608,"Ġvirus":3609,"ĠHer":3610,"met":3611,"ĠSch":3612,"Ġarri":3613,"Ġund":3614,"Ġshape":3615,"Ġdepend":3616,"ĠSept":3617,"-to":3618,"iques":3619,"Ġleading":3620,"Ġweb":3621,"Ġmount":3622,"Ġmental":3623,"Ġexec":3624,"ĠJes":3625,"ensity":3626,"ords":3627,"Ġmathemat":3628,"ET":3629,"Ġdim":3630,"edia":3631,"Ġalone":3632,"izes":3633,"amples":3634,"Ġhit":3635,"rael":3636,"Ġchoice":3637,"resh":3638,"Ġexplain":3639,"Ġpredict":3640,"ilos":3641,"Ġstatement":3642,"Ġreceived":3643,"ĠTra":3644,"ocks":3645,"Ġinput":3646,"ĠSw":3647,"Ġhon":3648,"Ġswe":3649,"Ġlargest":3650,"Ġdry":3651,"Ġsupply":3652,"Ġrates":3653,"Ġveget":3654,"Ġdate":3655,"umn":3656,"Ġchance":3657,"more":3658,"Ġwebsite":3659,"Ġhumans":3660,"Ġpiece":3661,"Ġrock":3662,"Ġtrees":3663,"body":3664,"ibly":3665,"Ġult":3666,"iar":3667,"Ġsin":3668,"Ġfamilies":3669,"Ġtrack":3670,"ĠAlso":3671,"atur":3672,"Ġrap":3673,"Ġcourt":3674,")=":3675,"Ġestablished":3676,"Ġoutput":3677,"iers":3678,"rest":3679,"ession":3680,"ĠĠĠĠĠĠĠĠĠĠĠĠĠĠĠĠĠĠĠĠĠĠĠĠĠĠĠĠĠĠĠĠ":3681,"Re":3682,"Ġrand":3683,"Ġnote":3684,"Ġexpression":3685,"Is":3686,"ĠPol":3687,"ogle":3688,"Ġautom":3689,"Ġadminist":3690,"Ġappropriate":3691,"ball":3692,"king":3693,"Ġdevice":3694,"Ġactive":3695,"pi":3696,"Ġexercise":3697,"Ġallowed":3698,"see":3699,"Ġrot":3700,"IV":3701,"Ġrecently":3702,"Ġadvant":3703,"ĠFind":3704,"$ĊĊ":3705,"que":3706,"Ġrespond":3707,"Ġpan":3708,"ĠCong":3709,"mission":3710,"ags":3711,"ĠÃĹ":3712,"Ġreasons":3713,"ĠCalifornia":3714,"-year":3715,"ĠUse":3716,"Ġhar":3717,"ĠCour":3718,"Qu":3719,"oo":3720,"place":3721,"Ġlabor":3722,"Ġscale":3723,"HE":3724,"Ġformer":3725,"ĠDepartment":3726,"Ġfear":3727,"Ġzero":3728,"gency":3729,"Ġaim":3730,"With":3731,"Ġlegal":3732,"ĠIndian":3733,"ĠAmericans":3734,"Ġbeyond":3735,"ĠApril":3736,"Ġveh":3737,"Ġgard":3738,"ulated":3739,"ding":3740,"ĠEduc":3741,"Ġvia":3742,"Ġdisplay":3743,"Ġvolume":3744,"istry":3745,"ĠAugust":3746,"Ġunits":3747,"Ġrepe":3748,"isms":3749,"cember":3750,"Ġworked":3751,"Ġborn":3752,"Ġstrateg":3753,"ulf":3754,"Ġeconomy":3755,"Ġrandom":3756,"Ġmember":3757,"Ġworkers":3758,"ĠGerman":3759,"Ġusers":3760,"ĠĊ":3761,"()":3762,"Ġparty":3763,"Ġpow":3764,"ams":3765,"Ġimages":3766,"Ġsurpr":3767,"ashington":3768,"Ġax":3769,"ellig":3770,"Ġtransport":3771,"OT":3772,"Ġ...":3773,"gn":3774,"Ġneigh":3775,"Ġweather":3776,"Ġforward":3777,"Ġbound":3778,"Ġteaching":3779,"Ġinfluence":3780,"Ġmole":3781,"lin":3782,"Ġtests":3783,"/s":3784,"(\"":3785,"Ġfollowed":3786,"Ġrare":3787,"Ġremains":3788,"Ġcommunities":3789,"ĠSystem":3790,"hens":3791,"Ġleaves":3792,"ĠJuly":3793,"gs":3794,"Ġdoctor":3795,"iot":3796,"Ġdied":3797,".c":3798,"omin":3799,"ĠAfrica":3800,"cil":3801,"-S":3802,"Ġcitiz":3803,"Ġperhaps":3804,"uman":3805,"ector":3806,"ĠAlthough":3807,"Ġpurch":3808,"cean":3809,"ĠTrans":3810,"Ġproperties":3811,"ager":3812,"Ġearlier":3813,"enty":3814,"Ġcurrently":3815,"ĠMod":3816,"Ġcook":3817,"ĠMath":3818,"Ph":3819,"issions":3820,"oses":3821,"Ġheard":3822,"Ġapplications":3823,"No":3824,"Un":3825,"Ġcreating":3826,"ĠâĢ¦":3827,"Con":3828,"Ġbra":3829,"ĠLaw":3830,"Ġchanged":3831,"cial":3832,"Ġfavor":3833,"Ġcold":3834,"ĠAng":3835,"Ġsites":3836,"ovember":3837,"Ġvacc":3838,"uries":3839,"tery":3840,"rab":3841,"arrow":3842,"Ġreligious":3843,"Ġlooks":3844,"gor":3845,"Ġacid":3846,"known":3847,"ctors":3848,"ĠDay":3849,"ĠChristian":3850,"Ġ}":3851,"Ġgiving":3852,"ĠDis":3853,"Ġinstance":3854,"Ġsolutions":3855,"ĠAnt":3856,"Ġassign":3857,"Ġnorth":3858,"Ġteacher":3859,"ica":3860,"Ġstage":3861,"Ġbreat":3862,"Ġvariable":3863,"ris":3864,"Ġpresident":3865,"Ġcru":3866,"ION":3867,"Ġdevices":3868,"ĠWilliam":3869,"olute":3870,"vest":3871,"Ġtiss":3872,"ĠInc":3873,"ĠIS":3874,"ĠHistory":3875,"Ġstar":3876,"amb":3877,"Ġanti":3878,"unction":3879,"inese":3880,"Ġstraight":3881,"Ġhop":3882,"ĠBo":3883,"Ġsevere":3884,"Ġhuge":3885,"Ġactual":3886,"ĠCity":3887,"lebr":3888,"Ġdiseases":3889,"Ġsummer":3890,"useum":3891,"ken":3892,"prove":3893,"Ġhear":3894,"Ġprobability":3895,"Ġbul":3896,"ĠIsrael":3897,"ĠGree":3898,"ipment":3899,"Ġfederal":3900,"mitted":3901,"ĠBecause":3902,"idents":3903,"Ġnamed":3904,"Ġ%":3905,"All":3906,"Ġcm":3907,"ĠInstitute":3908,"ky":3909,"Ġenter":3910,"Ġinitial":3911,"ondon":3912,"Ġround":3913,"ĠJanuary":3914,"Ġinform":3915,"respond":3916,"Ġsurround":3917,"Ġobvious":3918,"Ġtypically":3919,"Ġturned":3920,"Ġvot":3921,"Ġcand":3922,"Ġmachine":3923,"rogen":3924,"Ġapplied":3925,"Ġcateg":3926,"Ġheight":3927,"Ġfa":3928,"Ġice":3929,"Ġign":3930,"izations":3931,"Ġancient":3932,"aling":3933,"ĠServ":3934,"iate":3935,"outhern":3936,"Ġcontroll":3937,"odies":3938,"rical":3939,"Ġfig":3940,"roy":3941,"Ġopportunity":3942,"Ġspirit":3943,"Ġlocation":3944,"Ġtrade":3945,"Ġclin":3946,"Ġsolar":3947,"BC":3948,"Ġeffort":3949,"path":3950,"coh":3951,"EC":3952,"ĠJesus":3953,"ĠDon":3954,"othes":3955,"sect":3956,"Ġolder":3957,"ĠMr":3958,"gebra":3959,"ĠPress":3960,"-A":3961,"era":3962,"ĠEngland":3963,"Ġmodels":3964,"Ġconnect":3965,"iny":3966,"Ġoverall":3967,"ĠChe":3968,"Ġgold":3969,"Ġconstruct":3970,"_f":3971,"II":3972,"ĠProg":3973,"Ġcompar":3974,"Ġtoward":3975,"Ġimportance":3976,"Ġerror":3977,"ped":3978,"Ġwaste":3979,"ĠLevel":3980,"rary":3981,"Ġfuel":3982,"ford":3983,"Ġreceive":3984,"egin":3985,"Ġnames":3986,"itable":3987,"Ġdoub":3988,"Ġtesting":3989,"Ġsett":3990,"rices":3991,"Ġhair":3992,"Ġegg":3993,"aign":3994,"Ġprotein":3995,"Ġlocated":3996,"_s":3997,"Ġstrength":3998,"Ġcircle":3999,"ĠAfrican":4000,"ĠSeptember":4001,"Ġrob":4002,"Ġblue":4003,"These":4004,"Ġstyle":4005,"Ġapply":4006,"orks":4007,"Ġestablish":4008,"ologies":4009,"ĠChild":4010,"Ġhous":4011,"Ġpul":4012,"Ġ==":4013,"Ġupd":4014,"Ġtechniques":4015,"ros":4016,"aur":4017,"ĠWashington":4018,"Ġcos":4019,"Ġadop":4020,"ĠInternational":4021,"Ġbank":4022,"Ġeight":4023,"Ġhabit":4024,"Ġeasier":4025,"ospital":4026,"Ġsave":4027,"Ġplease":4028,"...Ċ":4029,"ĠGreat":4030,"Ġvirt":4031,"rant":4032,"ternal":4033,"Ġgradu":4034,"Ġbenefit":4035,"Ġhappens":4036,"ĠRepublic":4037,"Ġdefinition":4038,"Ġprojects":4039,"Ġpen":4040,"ĠFl":4041,"Ġoffice":4042,"ĠFin":4043,"Ġsouth":4044,"Ġmessage":4045,"ĠRed":4046,"orthern":4047,"Ġplaced":4048,"Ġefforts":4049,"ĠPat":4050,"Ġmag":4051,"Ġtele":4052,"Ġinsp":4053,"!!":4054,"Ġstore":4055,"ĠHouse":4056,"AP":4057,"log":4058,"Ġprotection":4059,"Ġstarting":4060,"oday":4061,"nes":4062,"ĠBlack":4063,"ees":4064,"Ġvit":4065,"Ġprocesses":4066,"roup":4067,"Ġking":4068,"Ġmeasures":4069,"Ġoptions":4070,"Here":4071,"Ġtour":4072,"Ġpowerful":4073,".C":4074,"Ġbillion":4075,"ĠInst":4076,"iring":4077,"Ġconsequ":4078,"Ġtask":4079,"ico":4080,"Ġrecommend":4081,"Ġresponsible":4082,"They":4083,"ĠOur":4084,"].":4085,"Ġvote":4086,"udd":4087,"Ġlooked":4088,"Ġbeg":4089,"edom":4090,"Ġtried":4091,"Ġboard":4092,"Ġinfection":4093,"ĠOctober":4094,"ara":4095},"merges":["Ġ t","Ġ a","h e","i n","r e","Ġt he","o n","e r","Ġ s","a t","Ġ o","e n","Ġ w","Ġ c","i s","e s","i t","n d","o r","Ġ p","Ġ b","a l","Ġ f","a n","e d","in g","Ġo f","o u","Ġ m","Ġ in","a r","Ġt o","Ġ d","Ġa nd","i c","i on","l e","Ġt h","a s","r o","Ġ Ġ","Ġ h","en t","Ġ e","c t","Ġ n","i l","Ġ l","o m","v e","Ġ re","s t",". Ċ","Ġ is","l y","Ġb e","Ġ g","s e","Ġ T","â Ģ","u t","o t","e t","i m","o l","i d","o w","r a","Ġ I","c e","at ion","Ġ y","Ġth at","i g","Ġf or","Ġ u","Ġ on","Ġ A","c h","Ġ S","u r","v er","Ġs t","a y","a m","Ġ C","i r","u l","Ġy ou","e l","a d","it h","Ġ it","ĠĠ ĠĠ","Ċ Ċ","Ġa s","Ġa n","he r","i f","Ġw h","Ġa re","Ġ (","Ġw ith","Ġp ro","Ġc on","Ġa l","t er","Ġ M","o d","Ġo r","u m","g e","ĠT he","Ġ P","Ġ he","at e","er s","Ġh a","il l","Ġw e","t h","q u","is t","Ġ B","o p","Ġd e","k e","Ġe x","l d","r i","o re","es s","es t","a b","m ent","Ġc om","u s","Ġ v","Ġ W","a c","Ġ H","e ct","re s","Ġa t","ig h","o s","it y","Ġs u","ro m","Ġb y","p p","i ve","e m","n t","an t","Ġw as","Ġ D","a in","âĢ Ļ","i es","Ġc an","Ġ r","Ġ F","Ġ R","Ġn e","Ġs e","Ġn ot","Ġ E","i v","a nd",".Ċ Ċ","Ġf rom","Ġc h","o c","Ġha ve","u n","Ġth is","or t","u d","Ġ N","ar t","igh t","Ġs h","Ġ le","ou ld","u re","Ġ L","Ġ G","Ġ âĢ","Â ł","al ly","al l","Ġa b","en d","' s","Ġs p","o g","u st","om e","e re","p t","ou t","Ġw or","o st","g h","p l","ion s","Ġ k","ic h","in e","ou r","r ou","T he","i al","ar d","Ġu s","a g","Ġp l","t her","Ġin t","Ġ O","p er","Ġw he","Ġd o","el l","a re","a ct","Ġthe y","Ġal l","a ge","a k","at ed","Ġ =","as t","id e","f f","Ġ im","ic al","Ġyou r","Ġw ill","Ġ J","e ar","Ġthe ir","an s","Ġ en","Ġb ut","âĢĻ s","i e","i z","Ġwh ich","ou s","in d","Ġm e","a p","ul t","Ġ \"","ĠĠ Ġ","e c","Ġh as","d u","Ġ U","Ġ j","Ġg o","Ġcom p","Ġa d","Ġm ore","on g","i p","b er","Ġcon t","o k","r u","ĠI n","ĠĠĠĠ ĠĠĠĠ","ĠT h","Ġon e","Ġre s","ation s","r y","or m","c c","on e","am e","b le","i re","Ġs o","Ġd is","ab le","Ġin c","ve l","Ġo ut","e p","ac k","Ġc l","s o","a ke","ar y","Ġo ther","Ġm an","im e","en ce","Ġ -","a ch","i a","as s","a u","o se","ct ion","an ce","Ġp er","ic e","ver y","Ġh is","Ġl i","âĢ Ŀ","ent s","Ġab out","Ġwe re","as e","at er","ig n","Ġu n","Ġu p","u e","res s","Ġ qu","in t","il d",". .","a ce","Ġa r","it e","Ġwh o","Ġ if","Ġt e","a v","Ġa pp","k s","Ġal so","Ġe v","n ow","an g","it ion","o ok","Ġim p","ĠS t","Ġp re","Ġthe m","Ġthe re","u b","re at","Ġp art","Ġs ome","ou nt","or d","en s","re e","Ġp e","l ow","ay s","e w","o od","ĠâĢ ľ","Ġ K","Ġth an","Ġs c","Ġbe c","i le","ĠI t","ou nd","or y","or s","Ġwhe n","Ġw ould","if f","# #","Ġli ke","c es","is h","ou gh","l l","Ġt ime","op le","r ic","Ġs y","f orm","Ġa g","Ġh ow","a il","Ġint o","on d","Ġh ad","Ġwh at","Ġan y","Ġst ud","Ġcom m","Ġ ro","p h","ing s","Ġk now","Ġbe en","ĠC h","Ġt w","Ġy ear","Ġ Y","au se","Ġo ver","Ġ V","nd er","t e","Ġwor k","Ġ $","' t","at h","p le","Ġs a","Ġd iff","o ve","Ġm ay","Ġpe ople","Ġit s","Ġre c","at es","Ġ ra","Ġbe t","Ġp o","m s","ir st","Ġu se","Ġn um","r it","l es","Ġt ra","Ġn o","ĠTh is","on s","Ġg et","m er","i an","in k","w e","ver s","Ġthe se","ol og","Ġne ed","Ġin d","u al","Ġa ct","Âł Âł","rou gh","j ect","Ġo ur","y s","if ic","Ġon ly","Ġc ol","i ous","Ġtw o","Ġb l","l ic","er v","Ġcon s","ro w","Ġne w","Ġu nder",": Ċ","re d","Ġ \\",") Ċ","re n","ter n",") .","Ġm ost","n ing","f t","Ġof f","c k","o v","le ct","Ġd es","Ġa m","Ġm y","Ġre p",") ,","o b","x t","Ġre l","Ġa cc","Ġt r","l ud","y p","Ġj ust","Ġf irst","et h","at ive","Ġ her","i b","st em","se l","he d","Ġsu ch","Ġex p","it ies","ow n","f ter","at ing","Ġf e","Ġg en","ul ar","ic s","Ġdiff ere","i ent","Ġhe l","is e","Ġman y","ment s","h at","Ġthe n","n e","ar k","Ġp os","rou nd","Ġus ed","ri b","Ġc o","Ġo b","c ess","Ġhel p","c ed","Ġp h","er m","ol d","ot h","e f","Ġsh ould","Ġc ould","Ġth rough","ff ect","ic k","an ge","ur n","Ġpro du","ut ion","al s","Ġp r","ĠH e","Ġad d","al th","he n","Ġ +","Ġde c","f ul","ation al","ĠâĢ ĵ","vel op","i ble","Ġinc lud","il ity","Ġwhe re","Ġe m","i ed","er t","is s","ĠĠĠĠ ĠĠĠ","Ġch ild","Ġas s","Ġm ake","Ġpro v","ra m","ra ct","u ch","Ġat t","Ġre g","_ _","Ġsu b","Ġsp ec","Ġa c","we en","a w","Ġsy stem","ow er","I n","Ġbec ause","it s","ĠU n","f ore","Ġre m","Ġf l","Ġs m","Ġfor m","Ġbet ween","Ġw ell","Ġs he","t ing","Ġw ay","Ġse e","ur ing","as ed","ad e","ro p","he s","e g","if e","w n","Ġyear s","o ol","Ġin v","n g","at a","Ġb u","c y","t en","ic t","Ġs im","Ġev en","Ġs ur","Ġsa id","Ġsu pp","u res","Ġnum ber","on t","Ġde velop","Ġe qu","Ġex am","Ġdo es","Ġe very","g et","i et","Ġ very","Ġv al","ere d","Ġin ter","Ġin f","s s","Ġ x","u ally","ce pt","Ġm od","- -","ar ch","ie w","il y","Ġe ach","t s","Ġdiffere nt","id ent","ot her","ol low","Ġa fter","Ġp ers","Ġs et","ĠI f","Ġin st","e ver","o y","Ġl ong","Ġpo int","Ġp res","Ġr ight","Ġf ind","Ġtr ans","Ġs ame","Ġp ol","Ġde f","Ġg ra","Ġm uch","Ġse c","Ġ ke","Ġh igh","Ġh im","Ġb ack","Ġc all","Ġf act","ĠW e","in es","ak ing","T h","Ġv ar","im es","u es","? Ċ","Ġdis c","Ġl ook","Ġ '","Ġw ater","Ġpro ble","it ed","Ġth ose","Ġs ol","Ġc ar","g an","sel f","Ġbe ing","ant s","in s","Ġe ar","Ġf un","Ġd ist","âĢĻ t","i ence","mer ic","u c","oc k","t le","a x","ch ool","Ġd et","Ġc ount",". \"","Ġgo od","Ġd id","Ġimp ort","Ġf ollow","Ġ end","ist s","t he","Ġth ink","Ġres p","Ġgen er","Ġf ound","Ġwor ld","Ġl ar","Ġt yp","Ġres ult","Ġre f","iz e","ch n","Ġn ow","g y","Ġs ign","is m","Ġex per","n ess","l ed","Ġhe alth","at ure","Ġd on","Ġc ent","form ation","Ġ ed","Ġ [","iv es","p s","t y","ur al","at her","olog y","ĠA l","ĠA n","or k","Ġ ent","Ġc ur",": ĊĊ","Ġd own","Ġle ar","Ġo wn","Ġre ad","Ġm in","w ard","Ġex t","l and","Ġc or","i o","in ce","Ġe ffect","Ġus ing","om m","v ed","ĠH ow","ĠP ro","Ġm ed","Ġag ain","Ġre se","ĠA meric","Ġsh ow","Ġw ant","Ġinc re","Ġre qu","od y","Ġqu est","i x","e x","v ing","Ġpro g","ag es","Ġb oth","Ġm on","Ġre t","? ĊĊ","re ad","Ġbe fore","d s","ic ally","ĠF or","Ġd ata","c ent","Ġm ade","ĠThe y","n ce","ru ct","Ġc he","ub lic","v ent","ĠY ou","Ġst r","Ġm at","i el","b ers","d er","Ġh um","Ġc re","c on","i vers","as es","Ġt ake","g g","ut e","Ġst art","v en","Ġl ife","ĠA s","ar m","ĠA nd","Ġde p","u p","Ġpro cess","Ġl it","Ġcomp le","s w","Ġin s","Ġpart ic","Ġp at","in ed","in al","ĠB ut","l i","Ġar t","Ġpers on","a ve","ver n","an y","c er","Ġex pl","Ġf am","ak es","st and","iz ed","u nd","t ed","h ip","Ġl oc","Ġs om","Ġha nd","a ir","ic es","Ġs oc","Ġth ough","Ġwh ile","Ġch ar","Ġst ate","iv en","Ġsm all","Ġl ess","Ġle vel","Ġt est","Ġimport ant","Ġpos s","Ġc a","al e","Ġs k","Ġg u","Ġpl ay","ar s","Ġin formation","Ġle ad","Ġg rou","Ġchild ren","Ġstud ents","Ġa ut","âĢ ¢","Ġd ay","Ġte chn","ul l","ect ion","el f","d ay","Ġd uring","c l","Ġ &","Ġth ree","Ġa round","en g","Ġre al","iv id","n er","Ġb r","Ġs ay","ĠR e",". âĢĿ","v es","Ġp ower","Ġexam ple","Ġa v","Ġcomm un","Ġst ill","a h","Ġd i","Ġd ire","w ay","re nt","Ġm ust","ir on","Ġbe l","Ġs chool","ĠĠĠĠĠĠĠĠ ĠĠĠĠĠĠĠĠ","i ally","id es","ra c","Ġcl ass","Ġs er","Ġp op","c om","Th is","ĠA r","Ġcon f","Ġg l","an k","e e","ir c","as h","ĠS p","Ġg row","ĠThe re","ĠN ew","o h","Ġf ood","Ġhe re","Ġm em","Ġm ain","ter s","us s","al k","Ġo p","} {","Ġg reat","Ġb o","Ġcon st","Ġw rit","ĠW h","Ġ .","r al","Ġc le","Ġh ist",". ,","ro l","Ġstud y","as on","Ġpl an","im ate","Ġof ten",") ĊĊ","Ġc our","$ $","Ġ Q","ere st","Ġs erv","ul ation","is ion","Ġm ight","os s","om en","Ġcons id","ou se","âĢ Ķ","Ġs elf","Ġunder stand","are d","- b","is hed","ro ss","r on","- s","Ġo cc","g er",".. .","Ġ ide","Ġe as","ĠS c","Ġsupp ort","Ġcall ed","at or","Ġpro t","en se","d ition","Ġgo vern","d e","Ġcont in","Ġst and","ĠE x","ain s","Ġf ew","i en","Ġe l","Ġt ri","Ġc al","Ġm et","l ine","ĠW hat","ion al","p r","Ġan other","Ġl ine","Ġ i","t o","it ive","a j","Ġs l","ĠI nd","Ġe lect","ire d",", \"","Ġall ow","el s","Ġsec ond","Ġto o","Ġc are","it al","Ġpl ace","Ġcomm on","u g","v iron","ĠI s","Ġb ody","Ġ est","ivers ity","l ess","Ġdes ign","b r","Ġan sw","I t","Ġwith out","Ġp ar","od e","et s","Ġme an","m an","al ity","w ays","ÂłÂł ÂłÂł","Ġl ast","Ġlar ge",", Ċ","he re","or n","eth od","ur y","Ġapp ro","Ġp ass","Ġg iven","Ġha pp","ot e","Ġproble m","ert ain","Ġb ook","Ġch ange","Ġt reat","pt ion","ab ility","ĠS h","os ed","Ġc ell","Ġbe h","Ġr is","an c","ff ic","Ġ ve","it ions","Ġad v","er gy","Ġhum an","eth ing","Ġor gan","iel d","act er","Ġact iv","e ed","## #","er ing","Ġfun ction","Ġint erest","in c","Ġgo ing","iet y","Ġre du","i er","Ġg re","Ġth ings","if y","ect ed","t t","Ġrese arch","ent ial","Ġprodu ct","i um","Ġbet ter","Ġbu ild","Ġb est","m e","Ġrep ort","Ġme as","id s","Ġare a","c ul","ĠĠĠĠĠĠĠĠ ĠĠĠ","Ġl aw","ou n","f rac","t on","Ġre ally","b s","Ġt er","Ġbel ie","v iew","ra in","Ġp ublic","e ad","Ġs it","Ġch ang","Ġe le","viron ment","Ġis s","her s","Ġval ue","ra ph","Ġp ract","Ġdire ct","a z","Ġto p","âĢ ĵ","ĠS o","Ġsom ething","are nt","Ġm ult","Ġs ays","Ġl and","Ġr un","ot s","iv ing","Ġknow n","in ess","Ġp ur","Ġre st","Ġb as","Ġdis e","Ġ #","at ic","con om","Ġo ld","Ġle t","Ġh ome","Ġc ase","iz ation","Ġm ark","i qu","Ġt ry","Ġv is","Ġs ince","Ġde m","ou th","Ġ â","Ġor der","Ġinclud ing","l ish","Ġke ep","p ut","` `","es p","ĠC on","Ġp ost","Ġt em","Ġ |","Ġme ans","Ġpro f","i or","Ġo pp","Ġc ap","Ġen ergy","Ġp ut","Ġf in","Ġquest ion","Ġl ight","in ation","ri es","g en","Ġse em","Ġb re","re t","Ġfollow ing","Ġm ethod","Ġhe ad","s c","am es","Ġdes c","ater ial","ivid ual","Ġagain st","Ġpro per","Ġcur rent","Ġlit tle","__ __","p ar","r ation",") .Ċ","am p","ab ly","Ġpres ent","ĠD e","oc i","if ied","at s","Ġwith in","ĠE ng","Ġ ident","o f","Ġret urn","Ġlear n","Ġfe el","ĠâĢ ĺ","i od","Ġo per","Ġ {","ĠA d","ro du","Ġsy m","Ġ z","ill ion","Ġan al",", âĢĿ","I f","ag n","ĠC l","ang u","Ġm ove","Ġposs ible","Ġl ist","Ġ /","W e","Ġh ard","Ġc irc","r ight","v al","th ing","ord ing","our ce","Ġt imes","Ġcom e","Ġle g","- f","| |","pl es","Ġed uc","- c","Ġen g","Ġu nt","end s","i ans","' re","Ġpro ject","Ġw ar","ĠW hen","Ġgrou p","ain ed","Ġim m","Ġp ot","Ġop en","Ġgovern ment","Ġe t","a pp","Ġph ys","Ġwh y","ent ion","om s","ent ly","ĠThe se","W hat","e k","Ġm us","Ġc r","our ces","Ġm ov","Ġob ject","Ġca us","Ġpro b","Ġind ividual","Ġc ost","Ġprog ram","aj or","Ġab le","Ġn ame","ĠAmeric an","o int","ĠT o","ard s","he m","Ġm il","Ġal ways","cc ess","âĢ ľ","er c","ĠC om","Ġb us","Ġm ar","er n","g in","Ġw r","il ar","S t","it her","in ing","h or","Ġde v","Ġb en","Ġp ri","Ġ Z","ra y","i k","l ing","ent al","w are","Ġcont rol","Ġne ver","Ġn on","Ġas k","Ġl im","ĠP h","Ġor ig","Ġt urn","Ġper cent","ic le","or th","Ġf il","Ġf ree","Ġf our","Ġm aterial","Ġe conom","ol ution","n ot","Ġbec ome","Ġimp ro","Ġper form","Ġw omen","er al","Ġl ow","r ist","p ort","Ġse ver","Ġ ess","Ġa ir","p ect","Ġle ft","Ġpartic ular","is ed","at ch","ĠHow ever","m in","Ġmon th","Ġs um","Ġen vironment","ress ion","Ġv ol","iv ed","Ġinv ol","res ent","Ġan t","o ad","Ġfam ily","Ġsoc ial","Ġnum bers","Ġansw er","Ġf ore","op e","- d","an e","{ \\","one y","u se","v ious","ĠâĢ ¢","o le","Ġs ide","Ġc ertain","Ġf ar","id ed","Ġne xt","Ġp ain","at ural","Ġv iew","ill s","Ġdevelop ment","Ġt ru","Ġm en","Ġne ar","Ġg ive",". S","ĠTh at","ĠP l","Ġm ajor","Ġb ased","w ork","p ro","or ies","Ġinclud e","Ġc ult","Ġch o","ĠS e","Ġd ra","Ġt re","Ġproble ms","ĠUn iversity","Ġh ig","um ent","ail able","Ġ X","Ġsever al","em ber","Ġadd ition","o ver","iss ion","Ġp a","Ġf re","id ence","ĠL e","Ġunt il","Ġab ove","Ġear ly","Ġl ot","Ġb ig","Ġd el","Ġspec ific","l u","olog ical","Ġs w","in a","r ing","Ġb ro","Ġprov ide","Ġd ri","Ġother s","Ġtyp e","Ġcount ry","Ġhist ory","ĠC an","ĠC ol","Ġbl ood","Ġocc ur","Ġl angu","Ġvar i","Ġm aking","ĊĊ Ċ","Ġle ast","Ġam ount","pl oy","' m","n s","o ot","Ġsu re","Ġg r","b e","Ġd ays","Ġra d","Ġris k","Ġper iod","Ġdet erm","Ġcour se","ra p","o id","Ġan im","i ents","E R","Ġs ing","ate ly","Ġen ough","ap s","y le","g ed","Ġcon n","Ġ er","ar c","an ces","l ished","Ġ$ $","ĠG od","Ġk ind","end ed","Ġp ress","ĠA t","ir d","th ough","Ġdise ase","ĠUn ited","o x","Ġsa f","ĠR es","Ġsign ific","Ġsh ort","Ġc ause","w w","ap e","Ġa way","y m","l er","ĠâĢ Ķ","ĠO r","Ġcomp ut","A s","gg est","end ing","id d","an n","f or","og raph","Ġpol it","The re","ct or","ĠU S","Ġh our","ac es","ĠA ll","re ct","Ġl ab","Ġinv est","ĠO n","Ġ *","Ġav ailable","h ing","Ġt ell","pl ic","ur ther","ure d","Ġcle ar","ĠS he","pl ay","og n","Ġl ater","et er","A T","-- --","Ġre ason","Ġre ce","h y","/ /","Ġben ef","A n","Ġst ep","ĠT e","Ġam ong","as ter","Ġ <","f ace","Ġacc ess","Ġsu ccess","s h","um e","u rop","oc us","os p","Ġsu ggest","Ġha ving","Ġc reat","H ow","Ġt erm","Ġal ong","âĢ ¦","Ġcom b","al f","Ġwor ks","ak en","Ġin tern","Ġlear ning","ort un","m ost","Ġa ffect","Ġto t","eng th","Ġp ast","Ġto get","Ġ- -","ĠC omm","Ġtoget her","ab les","Ġd one","Ġsp ace","ĠF r","Ġs qu","Y ou","Ġcomple te","c ing","on es","ic ult","le ase","Ġst ruct","Ġwor ds","read y","Ġth ing","b y","Ġb i","- t","Ġyou ng","Ġloc al","Ġte am","- p","Ġact ually","Ġsim ilar","r or","Ġe y","- m","Ġsc ient","p or","Ġpro m","ĠSt ates","Ġcon d","Ġm akes","ver se","ut ions","Ġa ge","F or","Ġp ay","un e","Ġapp ear","Ġare as","Ġf ri","ĠCh rist","et ic","Ġd ue","Ġg ot","ut ure","st it","} }","Ġ ,","ĠB l","Ġint eg","Ġf ull","Ġ :","Ġbus iness","Ġte xt","Ġchar acter","Ġresult s","Ġlike ly","Ġdisc uss","is c","Ġcre ate","m it","Ġf low","Ġm oney","Ġto day","ĠW or","urop e","Ġal ready","Ġn atural","Ġrep resent","p os","Ġg ame","Ġex ist","Ġdesc rib","Ġm ot","ain ing","_ {","au gh","Ġe ither","Ġob s","ut es","am ple","Ġwork ing","Ġd r","ive ly","Ġn orm","ver age","Ġke y","re am","ore d","g es","at ors","Ġsignific ant","Ġspec ies","Ġm ass","y l","Ġd ig","re en","led ge","Ġrec ord","Ġass oci","Ġgener al","Ġwhe ther","Ġneed s","s y","Ġf ocus","' ve","is on","le t","om et","Ġus ually","Ġpl ant","Ġpre vent","Ġp arent","a im","Ġan g","Ġc rit","Ġind ust","Ġdoes n","Ġm ind","Ġen c","Ġde ath","ot t","ver t","Ġapp lic","Ġwho le","Ġhe art","ec ially","Ġexper ience","as ing","Ġquest ions","Ġw ays","Ġthough t","Ġrel ations","Ġbe gin","Ġne cess","ar ing","Ġst ory","^ {","ĠJ oh","a f","Ġdiff icult","Ġne g","Ġ Âł","ere nce","Ġlangu age","u le","ĠC ent","Ġcal cul","ate g","n ed","Ġstr ong","Ġf ac","Ġar g","en cy","ys is","Ġo pt","Ġbe low","sel ves","Ġbeh av",".âĢĿ Ċ","ĠE urope","Ġspec ial","it ing","Ġaut hor","Ġac ross","Ġconsid er","ĠQ u","Ġm illion","ĠB e","s ide","ĠA f","Ġtreat ment","Ġh ouse","Ġsystem s","Ġn et","ĠM ar","om an","ĠC al","Ġwor d","Ġv ir","Ġon ce","Ġlevel s","ĠO ne","Ġt alk","ic ro","ist ic","Ġincre ase","Ġhow ever","le y","Ġimp act","Ġhig her","le ment","Ġf uture","Ġse en","as k","iqu e","; Ċ","Ġr ange","Ġcol le","Ġmod el","Ġr ather","Ġl og","Ġst at","Ġf r","er y","c le","esp ecially","ort s","ip le","Ġwe ek","Ġr ate","s p","Ġte ac","Ġpoint s","Ġhapp en","Ġcell s","Ġs al","( x","ig ure","om es","Ġcommun ity","Ġtem per","ĠM ay","Ġacc ount","at ory","Ġ ill","Ġvar ious","Ġpop ulation","m a","Ġide a","Ġh y","Ġf ield","Ġchang es","Ġd am","Ġsing le","Ġde g","Ġcl ose","u ck","ĠG o","il ities","Ġj ob","Ġto ol","i res","Ġsim ple","Ġc ame","e b","se t","ru g","av es","Ġrequ ire","n ew","age ment","Ġs ound","Ġf all","Ġh old","Ġc ut","is ing",". com","ĠW ith","e xt","Ġtru e","Ġd iv","um p","O N","Ġtot al","Ġeduc ation","Ġ vers","ĠN ational","Ġprof ess","ru ction","] Ċ","Ġsub ject","Ġs ize","Ġe ver","Ġab s","i ation","Ġdo ing","Ġel se","il t","Ġst op","Ġev ent","C h","u ed","ct ions","I N","Ġind ic","Ġtechn ology","Ġpre d","y n","u nt","Ġresp ons","Ġb it","Ġ especially","Ġf und","Ġg round","b it","us h","st r","ĠB rit","ol l","Ġcond itions","u ation","es c","} \\","ffic ient","ward s","Ġl ive","Ġc ases","ĠS ome","' ll","ob al","ĠN o","it or","| Ċ","Ġw ind","ĠR ep","w h","p ly","âĢĻ re","Ġter ms","Ġoff ic","Ġpa per","Ġâ Ī",": //","ĠM ed","Ġf ail","a ut","Ġh alf","ĠE ar","Ġpr im","ric t","Ġf ive","Ġc ity","T o","Ġem ploy","Ġmeas ure","Ġl ower","re l","ud e","Ġb at","Ġcan not","Ġfor ce","Ġart icle","Ġmark et","Ġche ck","ĠD o","Ġre d","ed i","Ġin it","Ġbl ack","ib ility","W hen","Ġf urther","ach ing","} $","Ġs ent","Ġcon cept","Ġ Â","Ġpol ic","Ġcount ries","ĠC ar","i ol","m ber","Ġcon cer",") :Ċ","ĠW ar","E S","and s","Ġs ens","Ġval ues",".Ċ ĊĊ","i pp","ific ation","a pt","Ġqu ick","Ġ `","Ġcent ury","Ġb rain","Ġcom es","l am","Ġatt ack","Ġtyp es","un g","ip s","Ġp ub","Ġd om","Ġdid n","at ures","ĠEng lish","! Ċ","Ġt aken","Ġest ab","Ġan n","S o","ch ie","ill ed","ĠT r","ro ll","Ġal most","ĠG en","Ġcor rect","Ġro le","Ġl ove","Ġimpro ve","our n","Ġwe ight","Ġw in","ul a","le ft","ep end","Ġ Ã","ĠB y","Ġcons um","Ġpos itive","Ġy et","Ġknow ledge","Ġent ire","ne y","Ġsur face","Ġpot ential","Ġbec ame","ĠA m","Ġto ok","Ġch all","A R","B ut","ĠAf ric","Ġs ense","Ġequ al","Ġeffect s","Ġl ength","ra ms","Ġrelations hip","Ġsome one","Ġcomple x","Ġag o","f er","ĠI m",".. ..","li ke","on se","ĠP r","du ct","ĠG e","Ġme et","ac c","ĠE n","Ġinf lu","ri pt","Ġph ot","ra d","ĠWor ld","Ġs ite","Ġs ource","Ġneed ed","ur ity","Ġgrou ps","Ġdet ail","Ġit self","ĠG erm","Ġe ff","o on",".\" ĊĊ","ove red","Ġb ir","Ġsc ience","Ġ$ \\","Ġ )","A l","Ġfre qu","Ġsol ution","Ġcan cer","Ġche m","ly ing","Ġphys ical","Ġget ting","Ġprob ably","em pt","Ġc y","Ġpos ition","Ġd oc","her n","Ġbelie ve","A S","Ġm or","iv al","Ġsp e","m ath","ur s","Ġup on","Ġdist rib","Ġcomp any","Ġp ath","t a","re g","i ver","ĠĠĠĠĠĠĠĠ ĠĠĠĠĠĠĠ","Ġb ar","Ġthem selves","il s","Ġwh ite","Ġprot ect","Ġl oss","Ġc op","Ġd est","it es","Ġhour s","E x","ur ch","\" ,","Ġpolit ical","an ks","Ġdef in","re me","Ġp ie","Ġrequ ired","f act","Ġmem bers","Ġen s","Ġv ide","ri ed","g ing","ĠJoh n","ĠAmeric a","Ġadd ress","ar get","Ġp ort","Ġmonth s","sy ch","Ġsu per","ĠA b","c hed","idd le","Ġt ax","Ġint rodu","Ġiss ues","iv ity","Ġcont rib","Ġprodu ction","d d","er o","Ġmat ter","m y","ac ed","ĠA ss","Ġacc ording","Ġstand ard","d ef","Ġobs erv","Ġlook ing","w here","Ġshow s","ou ra","ic ation","Ġcl aim","Ġsim ply","Ġpress ure","o ber","Ġrec ogn","Ġs at","u ff","Ġbuild ing","ĠM an","Ġt aking","Ġl ay","W h","Ġqu ality","Ġet c","Ġwrit ing","ĠS y","Ġf ace","pt oms","Ġpl ants","Ġre le","Ġev idence","Ġst ates","Ġn ight","Ġproduct s","Ġcre ated","Ġstud ies","Ġrel ig","Ġgrow th","Ġrese arc","Ġpract ice","Ġa chie","id ing","le ep","Ġsp eed","Ġso ft","Ġde al","Ġb ad","in ary","ĠIn tern","c hes","Ġr ul","Ġbre ak","im um","Ġpat ients","Ġeas y","Ġactiv ity","Ġre pl","A nd","Ġu r","is es","Ġpart s","ac y","Ġconsid ered","Ġfact ors","Ġequ ation","Ġpre vious","Ġd rug","ow s","Ġp ict","Ġa verage","Ġac cept","iv il","Ġpro p","Ġl ink",") :","ĠA pp","Ġcol lect","Ġm om","ĠSt ud","g o","Ġrel ated","g est","\" .","i ke","Ġunderstand ing","Ġeng ine","Ġl o","b on","A N","Ġser ies","us ion","Ġdiffere nce","en ces","Ġex act","Ġg e","Ġany thing","Ġ >","Ġanal ysis","Ġres ources","ĠG u","ore s","Ġl iving","ear ch","Ġgra ph","ra nd","- l","Ġpartic ip","Ġfl u","en e","ĠH is","al es","Ġtra dition","O R","Ġwr ite","Ġappro ach","ĠĠĠĠ Ġ","Ġstud ent","ict ion","en n","is ter","Ġorig inal","Ġn ational","Ġn ature","Ġd ou","Ġm ess","Ġre act","a e","it ary","ch an","yp e","Ġp age","Ġg as","Ġresp ect","Ġpri v","ust om","Ġsk ills","Ġwrit ten","Ġw ide","se qu","Ġseem s","ens ive","Ġrec omm","p art","Ġfam il","ag ed","I D","l ight","Ġse x","ĠY ork","ĠA fter","Ġcomput er","Ġ ri","ĠI nt","ĠN orth","ĠS outh","Ġtra vel","a i","Ġactiv ities","Ġs ix","Ġdevelop ed","Ġlong er","Ġab ility","Ġcont ent","iz ing","Ġn ut","Ġse par","ir m","Ġcon dition","Ġiss ue","ĠC ont","or g","b ol","Ġopp ortun","ĠS u","Ġa ction","Ġf ire","id er","ar r",") )","op h","Ġqu ite","f ect","Ġcol l","Ġw ent","Ġpat tern","n ces","Ġcon c","Ġpr int","ist ance","hem at","Ġmus ic","Ġnecess ary","ourn al","Ġo il","Ġd og","Ġredu ce",". g","Ġsh own","ĠC o","Ġnorm al","m b","ang le","u el","Ġmed ical","ir l","ĠSt ate","Ġeconom ic","te xt","i us","Ġperson al","Ġst e","Ġt able","Ġde b","Ġdra w","Ġb ase","av ing","Ġon line","H e","im al","Ġl a",".\" Ċ","ist ics","ĠP er","Ġassoci ated","Ġread ing","Ġbe gan","ĠN ot","Ġstart ed","- w","Ġsom et","Ġtry ing","an ced","Ġinst ead","en ge","l t","if t","ĠA ct","Ġre view","y ing","Ġsym ptoms","Ġis n","um b","Ġim age","ut ed","Ġcol or","Ġserv ice","Ġpr inc","o or","z e","ĠD r","er ve","at t","Ġbr ing","Ġs low","on y","Ġright s","Ġt akes","! ĊĊ","Ġparent s","Ġh tt","row n","Ġmain t","Ġc ode","Ġexp ress","p e","Ġsu n","ĠHe alth","ĠM y","r t","Ġmod ern","et y","Ġreg ard","Ġhist or","Ġgre ater","Ġincre ased","Ġm ach","N A","ĠJ an","os is","Ġc at","Ġlit er","Ġcom ment","Ġw a","es e","Ġeffect ive","Ġsk in","I S","ĠM e","b o","à ¤","Ġnot hing","Ġt arget","Ġsu ff","he t","Ġresp onse","ag ing","ad d","ra ction","Ġprov ides","Ġexper ien","Ġgl obal","Ġpop ular","Ġfe ed","â Ī","Ġhe av","Ġre v","Ġex c","Ġmean ing","ĠI I","Ġd iet","ĠA ust","h old","ĠEar th","le x","Ġst ress","im ent","Ġb ur","* *","ast ic","i am","a ff","Ġex erc","it ude","em s","Ġsomet imes","Ġsqu are","t ies","ĠThe n","Ġfe et","Ġ ut","Ġout side","Ġserv ices","Ġf at","e qu","Ġh or","art ment","Ġmin utes","Ġ ver","Ġw on","am in","Ġrel ative","Ġprodu ce","Ġanim als","E N","ac hed","m ing","st er","ĠJ ew","ap an","Ġneg ative","Ġcl imate","Ġgre en","Ġto ld","ic les","Ġv iol","l or","ec ause","Ġatt empt","h ib","Ġreg ular","s on","at ives","Ġreg ion","re w","Ġcle an","Ġad ult","ĠP e","ĠD ep","Ġm iss","Ġcomp an","Ġhe at","Ġcomp et","Ġtemper ature","Ġpre c","ĠS oc","Ġe p","er ous","Ġus es","Ġc amp","Ġrec ent","Ġc e","Ġstruct ure","ra ft","Ġbu ilt","Ġse qu","Ġincre asing","Ġm agn","Ġmaterial s","Ġse lect","Ġc oun","ful ly","ound s","Ġm ax","h aps","Ġpub lished","Ġar ch","am a","ut h","h ood","Ġresearc hers","Ã ©","Ġb all","rop ri","Ġfr ont","op s","Ġbeh ind","Ġsh are","Ġw alk","Ġindust ry","ar i","um ents","l im","e v","Ġc ou","Ġ Î","ĠW ill","ar ily","Ġst ra","Ġde ep","Ġe mer","ri x","Ġav oid","ĠU s","Ġf ile","Ġf ish","ĠP res","Ġl ives","ell ing","ord er","Ġd en","Ġm icro","Ġex cept","ail y","Ġl ines","ĠS ec","Ġprov ided","Ġsoc iety","Ġinter act","en ing","Ġbas ic","ce ed","Ġf av","Ġcont ain","' d","as c","u ge","ve re","Ġman agement","ĠWh ile","- h","Ġvide o","ĠE m","Ġins ide","Ġevery thing","ed eral","____ ____","it ch","ren g","p ose","Ġth ird","am ed","Ġb al","Ġev ents","Ġdist ance","Ġpro te","he ad","Ġcomp on","Ġask ed","in ks","A L","min ist","Ġhealth y","Ġconst ant","Ġk ids","ol ic","it ation","ab or","imate ly","ens ion","Ġcont act","or ing","Ġs leep","ap ter","ĠP ar","Ġl ack","Ġind epend","Ġse arch","Ġsur v","ĠN ow","Ġbehav ior","Ġcontin ue","ĠA ug","a ult","ĠBrit ish","Ġexp ect","c ient","Ġear th","d is","Ġf ight","b ra","Ġinvol ved","Ġd er","Ġtra ining","Ġwr ong","- in","rough t","Ġmethod s","Ġass ess","ect ions","Ġthrough out","Ġser ious","n ers","ĠH ist","Ġindividual s","b ook","Ġro om","Ġc ross","Ġdeterm ine","cc ording","Ġadd ed","Ġp ack","I C","ĠO ct","Ġa ff","n ame","ĠP re","Ġg ives","Ġelect ric","es tern","Ġl at","Ġe at","ar ies","n a","el t","Ġorig in","Ġmult iple","O n","b ack","Ġthe ory","Ġm other","r s","Ġme chan","-b ased","Ġsaf e","Ġth reat","em ic","Ġcon duct","Ġag ree","Ġrem ov","Ġimp lement","Ġc ustom","Ġapp l","ĠP art","se c","id ge","Ġin j","Ġpre t","st yle","ĠE d","o ly","ers on","ĠJ apan","Ġpo or","Ġsp read","Ġl ate","Ġf em","ad a","r m","ie f","o ke","Ġfact or","Ġchem ical","Ġf oot","Ġeas ily","Ġref er","ĠY our","Ġst ri","Ġmed ic","uc le","ren ch","Ġs il","Ġcaus ed","ad es","c os","ĠT w","Ġele ments","Ġon es","Ġmed ia","w ise","Ġdesign ed","end er","_ d","Ġqu ant","Ġschool s","ĠM in","P ro","und red","ul ations","Ġso on","Ġatt ention","ro om","Ġinclud es","ac hes","os ing","Ġf arm","Ġl ed","Ġfri ends","Ġob t","Ġperform ance","Ġthink ing","Ġwe bs","Ġnet work","ix ed","Ġst ay","o es","il le","Ġw all","g ar","Ġext reme","r ate","ĠS chool","l oad","j oy","Ġgener ally","Ġdem on","Ġ ir","Ġmom ent","ĠA pr","Ġr at","Ġsub st","Ġevery one","- y","Ġquick ly","Ġpo ly","Ġwh ose","Ġcons ist","g round","_ t","Ġco ver","Ġhelp s","Ġcomm it",") ;","Ġst reng","an a","ol es","Ġthere fore","Ġide as","Ġcaus es","Ġpr ice","ĠK ing","Ġso il","Ġth ous","r ast","Ġgo es","Ġs old","Ġbook s","] ,","A C","ve y","u fact","Ġm ath","= =","Ġmove ment","Ġbenef its","Ġth us","he l","Ġey es","Ġhim self","ĠM ore","Ġprog rams","en c","as ons","ul ly","ĠCom p","r im","Ġhand s","Ġlar ger","Ġparticular ly",". )","Ġspe ak","ÂłÂł Âł","r ated","I T","c ome","Ġc ard","us ed","ce ll","Ġfun ctions","Ġm ention","Ġcompan ies","Ġf inal","Ġcult ure","Ġident ify","un ch","i ber","e al","Ġl ost","] ĊĊ","d om","ĠL et","Ġp sych","Ġt ree","Ġw ild","Ġsa w","Ġsit uation","Ġdam age","o e","Ġro ad","am ent","Ġdoc ument","Ġs us","is ions","Ġpolic y","Ġun it","ro te","Ġus er","R E","Ġfin anc","Ġb ab","ĠO b","Ġuse ful","re c","Ġor d","ĠH ere","Ġw ond","stit ute","O ne","ash ing","ight s","ĠC ount","Ġdirect ly","Ġc red","Ġs ection","ron ic",") .ĊĊ","e ks","Ġal tern","Ġs n","Ġenc oura","Ġinvest ig","Ġa ud","Ġvar iety","res p","Ġthe rap","ĠH ar","' ,","Ġto wn","Ġimm edi","? \"","Ġreport ed",". e","Ġpol l","Ġvers ion","Ġnew s","Ġfor ms","il es",".. .ĊĊ","ĠS im","Ġem ot","u ary","Ġinclud ed","Ġoff er","Ġear li","Ġf ram","ed s","Ġmil itary","m on","ir it","ri ption","Ġhe ld","Ġmult i","ĠM c","Ġf ast","ĠM at","Ġdire ction","ĠS ol","r ig","Ġbo x","Ġest im","Ġchall eng","B y","le ction","Ġf igure","Ġg irl","en ed","Ġallow s","Ġp ick","ÂłÂłÂłÂł ÂłÂłÂłÂł","ĠA g","Ġh arm","Ġf ru","Ġprodu ced","Ġt ur","Ġenvironment al","ĠCh ina","est ion","u ous","ww w","Ġapp ropri","q rt","Ġbl ock","Ġpre p","Ġun ique","Ġev al","Ġh undred","du c","Ġd ivid","land s","Ġf ather","( n","Ġh ot","Ġf it","ĠS m","Ġs ources","Ġdi agn","u it","Ġform ula","Ġvis it","h a","pp er","Ġal though","Ġens ure","Ġca pt","ĠInd ia","- g","Ġproper ty","Ġa ware","ĠC ons","( self","o in","Ġk ill","Ġj ud","re es","Ġen joy","E D","Ġd ang","u ra","Ġc it","Ġto wards","ĠM ost","ri al","Ġper fect","in o","Ġexact ly","um ber","in ate","Ġl if","iel ds","Ġcar bon","Ġoffic ial","Ġw atch","Ġt end","er ation","Ġro ot","ell ow","Ġn ation","ri e","ĠJ u","ĠSc ience","Ġsec urity","ĠR ec","r an","y ond","Ġr out","ĠM any","Ġc ivil","Ġcent er","Ġbu y","om b","ĠRes earch","Ġrem ember","Ġgrow ing","Ġess ay","i i","ĠF irst","Ġcont ains","Ġw ood","ĠP a","dis play","Ġim ag","Ġre ve","ĠF eb","Ġinterest ing","## ##","ĠAust ral","Ġdec re","Ġscient ists","Ġele ment","Ġess ential","Ġanal y","est s","Ġh ost","o ff","Ġprog ress","Ġt it","ĠR eg","b l","č Ċ","air s","Ġman ufact","Ġbec omes","Ġany one","v ant","Ġlead ers","Ġscient ific","âĢĻ ve","Ġr ule","Ġs ort","Ġcom ing","---- ----","Ġref lect","Ġsym bol","ĠC O","Ġsol ve","Ġm iddle","Ġse ason","pp ed","ð Ŀ","k now","Ġwant ed","Ġsoft ware","Ġsaf ety","an cy","Ġaddition al","Ġb ott","Ġde ad","Ġteac hers","Ġw rote","Ġtool s","Ġd ark","b an","Ġw arm","Ġbir th","Ġw oman","l ation","Ġinter p","ric k","ric ult","Ġpl aces","Ġapplic ation","Ġcon cent","âĢĻ ll","Ġle ave","Ġrem ain","Ġbegin ning","in ct","ĠO f","Ġwor th","ograph y","ter m","Ġcomplete ly","ĠV al","N ow","Ġpret ty","ĠJ ust","Ġget s","h am","Ġprim ary","ĠCh ar","Ġdec ision","S T","ĠB ar","Ġg ames","Ġyour self","b or","m ed","ĠC or","Ġfri end","Ġh ope","Ġpict ure","ĠG l","al y","ĠF rom","Ġcomp ared","augh t","Ġm ill","Ġin n","Ġhtt p","Ġexam ples","Ġcost s","erv ation","Ġrun ning","ab et","ĠM on","ĠN e","ĠO ther","ĠD av","Ġpri or","Ġintern ational","Ġm is","Ġsh all","Ġad j","Ġwe eks","ĠD ec","ul ate","Ġcont ext","ĠF rench","display style","ĠE l","Ġdistrib ution","Ġext ra","Ġun c","a res","Ġpur pose","- st","_ c","Ġfe atures","Ġexp ected","Ġd aily","Ġcrit ical","Ġf air","Ġh yp","Ġachie ve","Ġ ï","Ġa st","Ġb acter","ĠÂł ĠÂł","m at","Ġdevelop ing","ĠA re","ĠWh y","Ġdr ink","if orn","Ġcon vers","ĠA c","Ġfood s","m ar",". org","Ġcho ose","Ġs on","Ġanim al","Ġbro ad","Ġdec l","ĠW est","Ġfore st","ĠM arch","Ġm id","Ġo x","ĠK e","Ġrul es","Ġhy d","Ġtradition al","b ed","Ġsay ing","vent ion","Ġpat ient","Ġlim it","Ġe th","Ġcomm and","ough t","Ġey e","Ġcar ry","A t","ĠR uss","Ġhigh ly","Ġappro x","Ġmem ory","ĠPres ident","u k","he st","S h","oc r","Ġlaw s","Ġco ol","om ing","Ġdem and","Ġc am","Â °","al se","al le","o very","Ġinst all","Ġpriv ate","Ġcent ral","Ġsu st","Ġfil m","Ġfor ces","Ġb rought","z z","ĠS ince","Ġcap ac","er g","Ġg ave","Ġdef ined","Ġs ample","Ġas pect","ien cy","Ġrequ ires","ra g","Ġobject s","om p","f ort","Ġdemon str","Ġsc reen","ĠâĪ Ĵ","Ġnear ly","Ġl oad","Ġsmall er","Ġn ucle","Ġcap ital","Ġstep s","} $$","ke y","iforn ia","ra w","Ġs ides","ith m","Ġmov ing","os ition","Ġdescrib ed","Ġass um","ĠCent er","Ġdeg ree","ub e","Ġmil es","Ġfinanc ial","re et","Ġst ru","o ice","Ġv ict","ĠEurope an","os ure","ou d","Ġang le","A M","Ġre ach","Ġbas is","Ġt en","s qrt","ĠAr t","Ġd at","T hat","ĠE ven","Ġse a","Ġgo al","Ġ$$ \\","Ġpro ced","Ġt ou","ĠM us","Ġlim ited","Ġinst it","ent ially","it er","ĠJ une","od es","Ġbe aut","ĠR et","c ks","Ġvir us","ĠH er","m et","ĠS ch","Ġar ri","Ġu nd","Ġsh ape","Ġdep end","ĠSe pt","- to","iqu es","Ġlead ing","Ġwe b","Ġm ount","Ġm ental","Ġex ec","ĠJ es","ens ity","ord s","Ġmat hemat","E T","Ġd im","ed ia","Ġal one","iz es","am ples","Ġh it","ra el","Ġcho ice","res h","Ġexpl ain","Ġpred ict","il os","Ġstate ment","Ġrece ived","ĠT ra","oc ks","Ġin put","ĠS w","Ġh on","Ġs we","Ġlar gest","Ġd ry","Ġsupp ly","Ġr ates","Ġve get","Ġd ate","um n","Ġch ance","m ore","Ġwebs ite","Ġhum ans","Ġpie ce","Ġro ck","Ġtre es","b ody","ib ly","Ġu lt","i ar","Ġs in","Ġfamil ies","Ġtra ck","ĠAl so","at ur","Ġra p","Ġcour t",") =","Ġestab lished","Ġout put","i ers","re st","ess ion","ĠĠĠĠĠĠĠĠĠĠĠĠĠĠĠĠ ĠĠĠĠĠĠĠĠĠĠĠĠĠĠĠĠ","R e","Ġra nd","Ġnot e","Ġexp ression","I s","ĠP ol","og le","Ġaut om","Ġad minist","Ġappropri ate","b all","k ing","Ġdev ice","Ġact ive","p i","Ġexerc ise","Ġallow ed","se e","Ġro t","I V","Ġrec ently","Ġadv ant","ĠF ind","$ ĊĊ","qu e","Ġresp ond","Ġp an","ĠC ong","m ission","ag s","ĠÃ Ĺ","Ġre asons","ĠCal ifornia","-y ear","ĠU se","Ġh ar","ĠC our","Q u","o o","pl ace","Ġlab or","Ġsc ale","H E","Ġfor mer","ĠDep artment","Ġf ear","Ġz ero","gen cy","Ġa im","W ith","Ġleg al","ĠInd ian","ĠAmeric ans","Ġbe yond","ĠApr il","Ġve h","Ġg ard","ul ated","d ing","ĠE duc","Ġv ia","Ġdis play","Ġvol ume","ist ry","ĠAug ust","Ġun its","Ġrep e","is ms","ce mber","Ġwork ed","Ġb orn","Ġstr ateg","ul f","Ġeconom y","Ġrand om","Ġmem ber","Ġwork ers","ĠGerm an","Ġus ers","Ġ Ċ","( )","Ġpart y","Ġp ow","am s","Ġim ages","Ġsur pr","ashing ton","Ġa x","ell ig","Ġtrans port","O T","Ġ ...","g n","Ġne igh","Ġwe ather","Ġfor ward","Ġb ound","Ġte aching","Ġinflu ence","Ġm ole","l in","Ġtest s","/ s","( \"","Ġfollow ed","Ġra re","Ġrem ains","Ġcommun ities","ĠSy stem","hen s","Ġle aves","ĠJu ly","g s","Ġdo ctor","i ot","Ġd ied",". c","om in","ĠAfric a","c il","- S","Ġcit iz","Ġper haps","um an","ect or","ĠAl though","Ġpur ch","ce an","ĠTr ans","Ġproper ties","ag er","Ġearli er","ent y","Ġcurrent ly","ĠM od","Ġc ook","ĠM ath","P h","iss ions","os es","Ġhe ard","Ġapplic ations","N o","U n","Ġcreat ing","ĠâĢ ¦","C on","Ġb ra","ĠL aw","Ġchang ed","c ial","Ġfav or","Ġcol d","ĠA ng","Ġsit es","ove mber","Ġv acc","ur ies","ter y","ra b","ar row","Ġrelig ious","Ġlook s","g or","Ġac id","know n","ct ors","ĠD ay","ĠChrist ian","Ġ }","Ġg iving","ĠD is","Ġinst ance","Ġsol utions","ĠA nt","Ġass ign","Ġn orth","Ġteac her","ic a","Ġst age","Ġb reat","Ġvari able","r is","Ġpres ident","Ġc ru","I ON","Ġdev ices","ĠWill iam","ol ute","v est","Ġt iss","ĠIn c","ĠI S","ĠHist ory","Ġst ar","am b","Ġant i","un ction","ines e","Ġstra ight","Ġh op","ĠB o","Ġse vere","Ġh uge","Ġact ual","ĠC ity","le br","Ġdise ases","Ġsum mer","use um","k en","pro ve","Ġhe ar","Ġprob ability","Ġb ul","ĠIs rael","ĠG ree","ip ment","Ġf ederal","mit ted","ĠB ecause","id ents","Ġn amed","Ġ %","A ll","Ġc m","ĠIn stitute","k y","Ġent er","Ġinit ial","ond on","Ġr ound","ĠJan uary","Ġin form","resp ond","Ġsur round","Ġob vious","Ġtyp ically","Ġturn ed","Ġv ot","Ġc and","Ġmach ine","ro gen","Ġappl ied","Ġc ateg","Ġhe ight","Ġf a","Ġ ice","Ġ ign","iz ations","Ġan cient","al ing","ĠS erv","i ate","out hern","Ġcont roll","od ies","r ical","Ġf ig","ro y","Ġopportun ity","Ġsp irit","Ġloc ation","Ġtra de","Ġcl in","Ġsol ar","B C","Ġeff ort","p ath","c oh","E C","ĠJes us","ĠD on","ot hes","se ct","Ġold er","ĠM r","ge bra","ĠP ress","- A","er a","ĠEng land","Ġmod els","Ġconn ect","in y","Ġover all","ĠC he","Ġg old","Ġconst ruct","_ f","I I","ĠPro g","Ġcomp ar","Ġto ward","Ġimport ance","Ġer ror","p ed","Ġwas te","ĠLe vel","r ary","Ġf uel","f ord","Ġrece ive","eg in","Ġn ames","it able","Ġdou b","Ġtest ing","Ġset t","ric es","Ġha ir","Ġe gg","a ign","Ġprote in","Ġloc ated","_ s","Ġstreng th","Ġcirc le","ĠAfric an","ĠSept ember","Ġro b","Ġbl ue","The se","Ġst yle","Ġapp ly","or ks","Ġestab lish","olog ies","ĠCh ild","Ġh ous","Ġp ul","Ġ= =","Ġup d","Ġtechn iques","ro s","a ur","ĠW ashington","Ġc os","Ġad op","ĠIntern ational","Ġb ank","Ġe ight","Ġha bit","Ġeas ier","osp ital","Ġsa ve","Ġp lease",".. .Ċ","ĠG reat","Ġvir t","r ant","tern al","Ġgra du","Ġbenef it","Ġhapp ens","ĠRep ublic","Ġdefin ition","Ġproject s","Ġp en","ĠF l","Ġoff ice","ĠF in","Ġs outh","Ġmess age","ĠR ed","ort hern","Ġpl aced","Ġeff orts","ĠP at","Ġm ag","Ġte le","Ġins p","! !","Ġst ore","ĠH ouse","A P","l og","Ġprot ection","Ġstart ing","od ay","n es","ĠBl ack","e es","Ġv it","Ġprocess es","rou p","Ġk ing","Ġmeas ures","Ġopt ions","H ere","Ġt our","Ġpower ful",". C","Ġb illion","ĠIn st","ir ing","Ġcon sequ","Ġt ask","ic o","Ġrecomm end","Ġrespons ible","The y","ĠO ur","] .","Ġv ote","ud d","Ġlook ed","Ġbe g","ed om","Ġtri ed","Ġbo ard","Ġinf ection","ĠOct ober","ar a"]}}
